{"蟠": 6098, "##oy": 12532, "〉": 516, "##ting": 9107, "ﾝ": 8097, "侷": 911, "霄": 7446, "##咁": 14521, "edited": 10304, "玫": 4382, "251": 10924, "鹰": 7916, "阿": 7350, "▲topjan": 10601, "##靴": 20543, "##故": 16182, "##求": 16781, "##炁": 17195, "則": 1179, "##銳": 20133, "paris": 10708, "##贸": 19645, "怀": 2577, "蜂": 6044, "訕": 6247, "頻": 7536, "##ta": 8383, "斟": 3163, "ㄤ": 662, "簧": 5082, "縫": 5239, "##咽": 14555, "z": 168, "畝": 4524, "禦": 4888, "緊": 5215, "毯": 3691, "困": 1737, "##⦿": 13644, "##嶽": 15386, "##揍": 16045, "##憑": 15788, "挣": 2914, "##絮": 18242, "浜": 3853, "得": 2533, "##qi": 11451, "##被": 19215, "慨": 2717, "##ano": 10855, "##炼": 17216, "##ﾉ": 21115, "ɡ": 199, "钜": 7161, "5500": 11298, "のないフロクに": 10900, "垮": 1809, "##既": 16245, "##油": 16836, "##校": 16470, "##耐": 18504, "##葬": 18930, "踹": 6684, "颍": 7572, "##ᅲ": 13481, "##器": 14747, "##ym": 12267, "凸": 1137, "のお": 8751, "致": 5636, "step4": 9504, "##肉": 18546, "脳": 5566, "##涝": 16933, "mo": 11303, "憂": 2726, "杓": 3334, "##祚": 17921, "##71": 9097, "##巨": 15399, "##郵": 20017, "笏": 5009, "edu": 9827, "##朮": 16374, "##淒": 16960, "##ろう": 12792, "##洋": 16874, "##鲛": 20887, "床": 2414, "##⁺": 13512, "##徕": 15589, "##郸": 20019, "##hp": 9990, "蓮": 5909, "##tta": 11245, "勸": 1253, "臉": 5622, "cheese": 11387, "##穢": 18008, "累": 5168, "1928": 9672, "弁": 2459, "叶": 1383, "##鋅": 20137, "拮": 2888, "纣": 5274, "麒": 7925, "##な": 8730, "##仄": 13844, "##弈": 15520, "殃": 3650, "##cl": 10753, "vps": 10027, "迦": 6830, "1930": 9275, "##谄": 19502, "5000": 8262, "##µ": 13355, "肏": 5492, "灸": 4132, "干": 2397, "贊": 6558, "鄱": 6974, "芯": 5708, "怠": 2591, "##嗒": 14680, "班": 4408, "mvp": 9505, "##梭": 16517, "ho": 10537, "hola": 10961, "##緹": 18288, "骅": 7735, "##屏": 15299, "嵌": 2316, "122": 9203, "##歐": 16684, "1990": 8431, "殆": 3651, "胁": 5516, "腕": 5580, "firefox": 8964, "喚": 1598, "##蜕": 19110, "##tings": 13288, "##緩": 18284, "rick": 13253, "##聰": 18532, "legalminer": 11377, "惰": 2680, "货": 6573, "##orm": 10530, "206": 9899, "##案": 16485, "##承": 15881, "厘": 1330, "邪": 6932, "h": 150, "joy": 12668, "##gle": 10098, "##鲈": 20884, "169": 9853, "あり": 10617, "##pn": 12991, "伝": 834, "##ving": 10369, "##倪": 14017, "##囂": 14773, "##檎": 16648, "##博": 14357, "pcb": 9925, "##腳": 18646, "##ァ": 13680, "v1": 9074, "##勃": 14291, "鑽": 7148, "潘": 4050, "鱷": 7822, "##舶": 18724, "贞": 6565, "factory": 12896, "駁": 7684, "##毡": 16746, "##质": 19631, "##跻": 19725, "瘓": 4599, "拨": 2884, "##塞": 14910, "##乖": 13788, "##nn": 9502, "##』": 13657, "##晩": 16305, "##se": 8417, "##装": 19220, "疸": 4561, "涙": 3874, "けます": 11841, "##盜": 17728, "##master": 12959, "･": 8085, "##vi": 9197, "gi": 12785, "屯": 2254, "駒": 7689, "я": 259, "free": 8583, "雞": 7430, "azure": 10421, "##╳": 13596, "thunder": 11322, "庞": 2425, "伶": 846, "##470": 12531, "sep": 9463, "net": 8336, "廣": 2451, "6s": 9590, "渤": 3943, "##本": 16372, "##刷": 14227, "叠": 1363, "癞": 4621, "蓦": 5907, "##姆": 15047, "独": 4324, "﹑": 8001, "÷": 193, "蘇": 5979, "涠": 3879, "##lly": 9456, "摀": 3027, "包": 1259, "##nis": 12334, "##sha": 12772, "##尉": 15259, "105": 8423, "##迄": 19869, "耙": 5452, "##监": 17721, "仄": 787, "瀝": 4110, "winrar": 9476, "婿": 2053, "4d": 10571, "##∩": 13537, "##擠": 16146, "##碑": 17868, "官": 2135, "##贝": 19621, "卸": 1319, "晓": 3236, "##枇": 16412, "##窨": 18035, "##丼": 13770, "諄": 6311, "dhl": 13305, "##佼": 13942, "佰": 880, "挾": 2925, "##蜥": 19117, "##髏": 20822, "叱": 1379, "啲": 1576, "##chel": 10867, "阴": 7346, "sr": 12109, "谗": 6461, "##∽": 13541, "幄": 2387, "耄": 5441, "##cg": 11478, "##閡": 20339, "416": 12453, "##薑": 19009, "shtml": 11501, "950": 10468, "慵": 2722, "openload": 13096, "1979": 8706, "##様": 16602, "##ric": 11748, "##洗": 16876, "##司": 14442, "robert": 9441, "26": 8153, "ajax": 11569, "##裊": 19222, "##齣": 21031, "肃": 5484, "郡": 6951, "2050": 11931, "懺": 2757, "##莽": 18875, "终": 5303, "鸳": 7892, "なのて": 10925, "細": 5169, "堿": 1845, "讯": 6380, "##ding": 9755, "靜": 7477, "⋯⋯": 10169, "beach": 9983, "储": 996, "嘴": 1673, "smart": 9353, "～1": 12756, "##&": 13322, "##代": 13864, "##妩": 15039, "##或": 15829, "些": 763, "室": 2147, "##样": 16473, "[unused29]": 29, "##戸": 15845, "##湮": 17022, "疑": 4542, "３": 8031, "##箫": 18111, "墾": 1879, "彻": 2515, "晝": 3242, "##dot": 12402, "54": 8267, "つ": 554, "##エ": 13682, "brown": 10699, "##囔": 14778, "##肝": 18555, "楸": 3515, "##脖": 18613, "##赫": 19679, "##饥": 20702, "##鳝": 20907, "民": 3696, "##噢": 14745, "##畿": 17594, "蹒": 6693, "駄": 7685, "軒": 6726, "##46": 9340, "chocolate": 12474, "##盎": 17718, "係": 913, "放": 3123, "煤": 4209, "蟲": 6100, "贤": 6570, "##愆": 15745, "瘤": 4606, "##払": 15861, "灭": 4127, "##启": 14480, "##羹": 18473, "##菩": 18892, "##赔": 19665, "ひ": 563, "##mate": 12125, "ᅴ": 319, "肅": 5486, "4600": 8826, "##悼": 15713, "螂": 6082, "stone": 11073, "##閾": 20349, "ネ": 617, "661": 10854, "##銘": 20128, "疊": 4540, "睬": 4725, "▂": 449, "籍": 5093, "蛔": 6031, "##㈦": 13725, "苫": 5737, "煩": 4214, "you": 8357, "瞥": 4742, "##媚": 15112, "john": 8675, "163": 8737, "钿": 7186, "侧": 904, "##澡": 17131, "##玟": 17435, "##聋": 18522, "##衰": 19196, "##赏": 19662, "##韌": 20558, "##︶": 21051, "隋": 7387, "10000": 8769, "详": 6422, "##ant": 9834, "money": 10348, "##猝": 17397, "蠟": 6109, "元": 1039, "陸": 7380, "##gen": 10152, "煮": 4215, "载": 6770, "##衾": 19200, "秦": 4912, "旦": 3190, "澤": 4075, "##糠": 18194, "##ware": 10534, "闾": 7321, "mc": 10341, "##佞": 13927, "america": 11801, "ｼ": 8090, "突": 4960, "м": 244, "村": 3333, "罡": 5386, "π": 223, "狱": 4328, "給": 5183, "賭": 6551, "った": 9179, "##ress": 11142, "##sun": 11798, "##tic": 9759, "胛": 5525, "ppt": 8842, "##rio": 12062, "##侷": 13968, "絹": 5191, "##巅": 15387, "[PAD]": 0, "##ca": 8808, "##亭": 13834, "曳": 3290, "##れます": 11745, "慾": 2725, "##า": 13449, "##枢": 16421, "値": 957, "涡": 3880, "遐": 6884, "##尝": 15271, "紓": 5154, "to": 8228, "b2c": 10089, "##渋": 16987, "games": 10810, "iptv": 12844, "##歇": 16680, "##狗": 17375, "##纰": 18341, "讚": 6367, "##证": 19452, "梭": 3460, "##涟": 16935, "##彼": 15573, "溧": 3982, "group": 9051, "##桑": 16490, "[unused33]": 33, "ｲ": 8088, "##钞": 20220, "wu": 10552, "唠": 1541, "絲": 5187, "ｅ": 8055, "##ity": 8863, "##瀟": 17169, "japan": 9151, "肱": 5508, "##纬": 18338, "##醮": 20074, "燙": 4243, "##si": 9182, "##ima": 13028, "##００": 9885, "駛": 7691, "##呕": 14502, "奇": 1936, "##窮": 18038, "##耋": 18501, "碳": 4823, "谒": 6457, "##鬧": 20842, "かかります": 9791, "##粹": 18179, "x": 166, "嗆": 1619, "埵": 1821, "桓": 3434, "##燁": 17290, "##诶": 19491, "礴": 4849, "焱": 4196, "##khz": 12112, "##挨": 15974, "绞": 5319, "蛳": 6039, "秽": 4920, "衩": 6135, "##窗": 18027, "毘": 3686, "##樣": 16621, "怵": 2599, "雾": 7443, "##☼": 13623, "##解": 19294, "##≧": 13548, "馀": 7663, "袪": 6157, "##鞑": 20550, "##ا": 13427, "沏": 3758, "##戍": 15822, "##恐": 15664, "##莧": 18866, "幟": 2392, "輪": 6743, "gmail": 8637, "control": 8809, "237": 10775, "誅": 6287, "##撬": 16120, "##陪": 20430, "傑": 989, "java": 8507, "country": 12678, "740": 13159, "献": 4346, "##喲": 14666, "##嘱": 14728, "摁": 3028, "僥": 1013, "seo": 8475, "##014": 11365, "075": 12660, "樂": 3556, "９": 8037, "##辩": 19853, "憨": 2736, "##漫": 17092, "##007": 12843, "##殭": 16720, "涂": 3864, "琼": 4437, "∮": 387, "##book": 8874, "靦": 7483, "planet": 12269, "##張": 15541, "##九": 13793, "##辗": 19843, "難": 7432, "133": 9246, "猛": 4338, "##rc": 10227, "##蠛": 19165, "##责": 19626, "##釵": 20097, "##ster": 8996, "##ree": 11621, "##嘅": 14703, "顾": 7560, "##骼": 20818, "##例": 13948, "より": 10230, "##rley": 13290, "骊": 7739, "徽": 2551, "ㄨ": 665, "##訝": 19309, "##宮": 15209, "##備": 14048, "##麵": 20991, "鈔": 7045, "##酵": 20054, "釉": 7024, "##撕": 16113, "##sc": 10203, "##恍": 15663, "郭": 6958, "##桨": 16501, "##rt": 8716, "扇": 2794, "##蹿": 19764, "##氛": 16759, "##缺": 18432, "撫": 3062, "弋": 2465, "罕": 5383, "軾": 6732, "##lex": 11074, "蘿": 5987, "##村": 16390, "丈": 675, "ぇ": 538, "##售": 14602, "扪": 2811, "##樓": 16616, "##稔": 17983, "戛": 2775, "椽": 3498, "諦": 6320, "満": 3970, "盅": 4657, "陕": 7362, "杉": 3329, "bug": 8761, "##mp": 9085, "##怦": 15651, "##酶": 20055, "##幺": 15460, "##餓": 20682, "##って": 9067, "##陛": 20420, "##継": 18253, "速": 6862, "##ture": 11704, "##ᅢ": 13470, "##沽": 16839, "戕": 2771, "釜": 7035, "##篁": 18117, "潜": 4052, "咸": 1496, "022": 12522, "##皆": 17696, "持": 2898, "##庇": 15470, "##マ": 9760, "授": 2956, "[unused89]": 89, "彿": 2517, "❤": 506, "灘": 4121, "340": 10049, "jim": 11268, "##憋": 15785, "謙": 6340, "哈": 1506, "##呛": 14505, "怒": 2584, "˚": 208, "閥": 7285, "逮": 6866, "msci": 9400, "##uality": 13145, "芃": 5689, "##詫": 19334, "译": 6406, "##pus": 12657, "fc": 10443, "paper": 10863, "moneydj": 11911, "##黍": 21000, "項": 7517, "匆": 1260, "氙": 3701, "107": 8632, "##欄": 16665, "##嘻": 14734, "##锥": 20295, "200mm": 13166, "箩": 5053, "138": 9209, "##～6": 10709, "瘘": 4600, "##拗": 15928, "##飩": 20668, "_": 142, "聋": 5465, "v4": 10942, "car": 10875, "##咤": 14540, "鹧": 7913, "##噶": 14753, "〖": 528, "##rial": 10358, "馭": 7680, "hey": 13153, "##抿": 15911, "##禮": 17948, "##绯": 18389, "001": 9263, "碍": 4809, "の": 561, "█": 453, "磚": 4834, "旱": 3197, "谩": 6475, "am09": 12377, "##涉": 16925, "⋯": 403, "馔": 7673, "図": 1740, "av": 8375, "141": 9554, "##恙": 15667, "橡": 3583, "##亵": 13838, "瀋": 4103, "198": 9776, "##约": 18333, "##nel": 12827, "##朦": 16367, "260": 9044, "##遵": 19962, "##炜": 17205, "##蹲": 19759, "##泡": 16853, "##讀": 19421, "##鞍": 20548, "惟": 2668, "齊": 7968, "錳": 7099, "##face": 12122, "憚": 2733, "倫": 961, "##鰭": 20871, "恃": 2603, "##gc": 10817, "##親": 19274, "##food": 12973, "##燥": 17303, "##芬": 18762, "萊": 5844, "##をお": 11236, "##蘚": 19040, "##細": 18226, "he": 9245, "##〔": 13661, "##跤": 19715, "乍": 724, "##℃": 8320, "札": 3316, "##dr": 11582, "##宵": 15213, "学": 2110, "婚": 2042, "策": 5032, "勝": 1245, "##t00": 9260, "never": 11718, "##v4": 12507, "欢": 3614, "705": 10595, "##ᆷ": 13484, "弼": 2488, "##™": 9221, "gohappy": 11567, "荫": 5789, "##媳": 15117, "窠": 4975, "挛": 2908, "伽": 850, "淡": 3909, "arpg": 12701, "耀": 5438, "～4": 12476, "蓼": 5910, "嚏": 1704, "峻": 2295, "##萱": 18915, "52": 8247, "##za": 9283, "##儷": 14091, "lake": 10556, "##殃": 16707, "##稲": 17993, "##via": 9490, "篓": 5066, "530": 10830, "##陡": 20424, "僖": 1011, "##疹": 17619, "擊": 3080, "枉": 3356, "刷": 1170, "翔": 5425, "绷": 5338, "home": 8563, "##嫁": 15120, "##鈪": 20107, "##長": 20326, "unt": 13003, "##hen": 11602, "##壹": 14959, "##嬅": 15136, "琲": 4431, "##47": 9050, "##忱": 15629, "ﾗ": 8095, "誼": 6309, "##惘": 15722, "怪": 2597, "##拜": 15933, "睽": 4727, "祝": 4867, "部": 6956, "饺": 7659, "その": 8782, "擼": 3100, "##ャ": 13695, "12345": 9700, "336": 12073, "##stro": 12976, "##螳": 19146, "##捂": 15983, "##輓": 19793, "唔": 1540, "##赚": 19668, "##郜": 20006, "##朐": 16360, "覦": 6215, "华": 1290, "370": 10011, "##拴": 15949, "決": 3748, "##撞": 16115, "##輛": 19796, "##人": 13839, "##缤": 18421, "p2p": 8478, "##gm": 11390, "興": 5646, "扁": 2793, "花": 5709, "薔": 5953, "遁": 6875, "##泱": 16863, "ul": 10293, "豊": 6490, "##些": 13820, "剋": 1182, "糞": 5135, "##メ": 10597, "汝": 3734, "build": 11561, "host": 12387, "柘": 3383, "##茄": 18803, "蚯": 6021, "fedora": 11577, "##病": 17624, "butler": 11797, "躉": 6710, "##23": 8748, "fresh": 12718, "##盪": 17736, "犊": 4300, "熹": 4231, "##ш": 13423, "##百": 17693, "薬": 5960, "讶": 6385, "鎂": 7110, "##瘓": 17656, "##纠": 18329, "驗": 7710, "阆": 7326, "##溶": 17045, "帮": 2376, "##皇": 17697, "擬": 3093, "##谀": 19499, "攞": 3110, "##參": 14404, "##ght": 9725, "##蚁": 19066, "##ate": 9690, "鸢": 7884, "737": 11933, "洲": 3828, "del": 10843, "狡": 4322, "钙": 7159, "##010": 11906, "##ヘ": 13693, "##瞟": 17797, "##货": 19630, "х": 253, "粮": 5117, "雌": 7419, "にも": 9328, "钯": 7176, "穴": 4954, "steven": 12174, "##媛": 15113, "認": 6291, "踢": 6677, "##隨": 20458, "ㄒ": 656, "逕": 6855, "鮭": 7803, "##cc": 8860, "ob": 12639, "##蝈": 19124, "##表": 19191, "##王": 17431, "淑": 3902, "##敎": 16186, "##瑄": 17497, "##峙": 15340, "##観": 19276, "潑": 4048, "##簧": 18139, "##萘": 18906, "doc": 9656, "情": 2658, "##澄": 17124, "boost": 11986, "##苫": 18794, "hotmail": 10728, "淳": 3919, "##ｸ": 21111, "metro": 12473, "鰓": 7813, "##击": 14197, "##弔": 15527, "##沟": 16822, "撃": 3048, "惮": 2678, "59": 8257, "##rip": 12332, "##幡": 15450, "##栉": 16462, "##懶": 15811, "##dium": 12787, "##潞": 17110, "im": 10481, "斋": 3153, "##珠": 17460, "い": 536, "##66": 8952, "##衬": 19194, "励": 1225, "##搓": 16070, "p9": 11951, "己": 2346, "##you": 12441, "13913459": 12643, "ｒ": 8068, "##卯": 14369, "##澹": 17136, "琴": 4433, "iso": 8784, "317": 11491, "舆": 5644, "result": 13170, "##惴": 15740, "##蔗": 18972, "##衄": 19175, "腸": 5591, "act": 10355, "##皓": 17702, "枭": 3368, "殒": 3656, "!": 106, "最": 3297, "渎": 3932, "[unused92]": 92, "™": 362, "惕": 2664, "腰": 5587, "遷": 6907, "##享": 13832, "##肇": 18545, "##ᄎ": 13465, "##胸": 18598, "敗": 3134, "麋": 7924, "##ain": 9347, "##file": 12056, "啖": 1561, "##gt": 12429, "闲": 7312, "##擀": 16131, "劾": 1231, "腑": 5577, "刀": 1143, "##陰": 20431, "昕": 3213, "订": 6370, "オーフン5": 11810, "##五": 13815, "##蕻": 19001, "be": 8815, "##仍": 13850, "##冥": 14154, "##勛": 14301, "##嬉": 15137, "##跳": 19720, "湳": 3967, "鬃": 7776, "color": 9916, "##鑿": 20207, "tokyo": 10357, "##酪": 20048, "##顼": 20615, "jayz": 11072, "##需": 20501, "ш": 256, "##痞": 17636, "docomo": 11358, "⁺": 353, "87": 8467, "##緞": 18280, "1939": 9459, "##滂": 17049, "##孑": 15152, "迭": 6834, "1950": 8707, "∕": 378, "##鯖": 20864, "maggie": 12423, "妝": 1976, "##化": 14322, "1899": 11886, "nc": 12394, "##脾": 18626, "##葆": 18920, "倶": 964, "権": 3565, "##詞": 19327, "##諡": 19376, "毀": 3672, "##玷": 17445, "##玻": 17447, "##畑": 17577, "剥": 1195, "狰": 4327, "寄": 2164, "##列": 14211, "##女": 15014, "##疇": 17596, "垂": 1795, "##尕": 15267, "##窟": 18031, "搏": 3011, "##做": 14033, "滿": 4021, "##延": 15511, "﹣": 8012, "吃": 1391, "##肥": 18560, "##臟": 18684, "漠": 4030, "檐": 3592, "ga": 11005, "s2": 11302, "##崭": 15367, "##突": 18017, "5℃": 9687, "##倬": 14019, "灏": 4119, "诲": 6431, "that": 9231, "鯨": 7809, "晗": 3240, "##ence": 10504, "蚱": 6022, "##娑": 15078, "鱈": 7818, "##灬": 17183, "コ": 602, "蹩": 6699, "solo": 11659, "笃": 5005, "陇": 7356, "巨": 2342, "##碩": 17877, "##剥": 14252, "##ope": 11937, "##焊": 17241, "剔": 1188, "##涓": 16928, "word": 8681, "##国": 14801, "##毽": 16749, "##let": 10780, "婧": 2045, "week": 10090, "##茁": 18800, "なら": 12604, "##force": 10488, "描": 2989, "##蚌": 19069, "媞": 2057, "why": 11177, "##炭": 17208, "june": 8564, "犧": 4304, "exchange": 10974, "##堕": 14891, "伢": 838, "阂": 7324, "##羊": 18456, "##赈": 19657, "1～2": 10776, "##thing": 12012, "##岑": 15320, "february": 10028, "##当": 15553, "##lock": 11248, "厝": 1332, "##‥": 13500, "蕉": 5933, "招": 2875, "##logy": 11121, "90": 8192, "##rian": 12475, "姹": 2011, "##昔": 16269, "blogabstract": 9288, "ra": 12619, "##❀": 13641, "##乙": 13791, "##沼": 16838, "##甫": 17559, "cut": 12322, "##眯": 17758, "##凳": 14192, "##凜": 14181, "##こと": 11127, "樺": 3573, "377": 13222, "梢": 3456, "∀": 376, "##喹": 14671, "妃": 1964, "対": 2194, "##嗦": 14691, "##霰": 20519, "cl": 12847, "##松": 16408, "##唧": 14600, "##柘": 16440, "兲": 1067, "brand": 12326, "##佤": 13932, "##疮": 17612, "##勳": 14308, "##科": 17963, "##is": 8331, "灞": 4123, "納": 5152, "vista": 9847, "##莲": 18870, "麸": 7935, "##纜": 18328, "瘠": 4603, "萃": 5842, "輩": 6742, "縴": 5242, "013": 13034, "##stry": 11001, "1901": 11113, "##邏": 19979, "##摆": 16087, "疟": 4549, "##ㄛ": 13716, "##凱": 14191, "##猷": 17406, "韬": 7507, "緘": 5220, "绛": 5316, "黜": 7951, "##刎": 14208, "削": 1181, "窨": 4978, "囊": 1718, "窖": 4969, "##ach": 10289, "n": 156, "##墻": 14935, "##氾": 16778, "糖": 5131, "##レス": 12696, "##舵": 18723, "辟": 6792, "猜": 4339, "翌": 5422, "##砌": 17831, "##餞": 20686, "廃": 2440, "齢": 7973, "##拖": 15927, "q10": 11382, "##∟": 13534, "葫": 5872, "3g": 8456, "##炽": 17217, "etnews": 12870, "悍": 2636, "泱": 3806, "##军": 14149, "mhz": 12747, "##{": 13344, "##google": 10626, "逵": 6869, "bbq": 10732, "酝": 6986, "singapore": 12916, "##驒": 20765, "桁": 3423, "抠": 2841, "##捻": 16008, "熵": 4230, "##荐": 18830, "157": 9928, "嗬": 1637, "幽": 2406, "薇": 5948, "##小": 15264, "崽": 2312, "388": 11632, "573032185": 9970, "淦": 3911, "wma": 9900, "##流": 16894, "荚": 5778, "悼": 2656, "##导": 15250, "蔥": 5920, "martin": 10059, "e": 147, "\"": 107, "売": 1899, "艳": 5683, "##int": 9824, "##oper": 11468, "##屯": 15311, "##谪": 19533, "356": 12215, "緑": 5218, "##win": 10237, "##shot": 11125, "ji": 12095, "##仮": 13870, "##叻": 14444, "视": 6228, "##弃": 15518, "lp": 11195, "party": 9126, "##荊": 18828, "髯": 7774, "##紊": 18207, "怡": 2592, "貞": 6510, "##脸": 18624, "##璉": 17520, "angelababy": 10643, "##迦": 19887, "##渉": 16985, "嘱": 1671, "##宪": 15207, "众": 830, "适": 6844, "red": 9276, "xl": 10657, "louis": 10950, "disney": 12299, "芜": 5697, "hktvmall": 9688, "##きた": 12775, "##搐": 16069, "##we": 11722, "##轩": 19816, "泵": 3808, "雪": 7434, "4000": 8442, "##啧": 14626, "##∼": 13540, "##弊": 15521, "滲": 4016, "##ψ": 13401, "##蕉": 18990, "bar": 9054, "##為": 17215, "##值": 14023, "峙": 2283, "嶙": 2326, "##时": 16255, "##骋": 20797, "nbapop": 12188, "綑": 5194, "嘘": 1656, "密": 2166, "##bell": 13110, "##ι": 13387, "andrew": 10582, "amoled": 11307, "寓": 2171, "##郦": 20011, "##椹": 16554, "髮": 7773, "繪": 5257, "##垛": 14858, "##ys": 9449, "辕": 6784, "筋": 5025, "20g": 12793, "悴": 2651, "參": 1347, "004": 12329, "##きます": 12506, "##家": 15214, "##﹡": 21068, "輕": 6738, "other": 12132, "##杳": 16404, "胫": 5533, "##炙": 17204, "錯": 7097, "##趣": 19694, "ni": 10560, "##脍": 18608, "炯": 4153, "鱉": 7819, "潮": 4060, "##rie": 11062, "##頁": 20571, "棱": 3482, "笔": 5011, "##ons": 9961, "195": 9996, "凳": 1135, "厂": 1322, "錫": 7095, "驒": 7708, "##删": 14217, "及": 1350, "##bs": 9071, "##light": 9638, "##gin": 10822, "##佇": 13910, "##夜": 14972, "##嫻": 15135, "##筹": 18097, "诙": 6410, "inc": 8910, "##耙": 18509, "##酱": 20053, "漏": 4026, "##ه": 13438, "##佘": 13921, "##③": 13558, "##犀": 17354, "##ews": 13024, "##邳": 19995, "穹": 4957, "伊": 823, "##顴": 20608, "##諜": 19375, "##200": 9902, "##發": 17691, "【": 523, "##チ": 10202, "##暴": 16331, "##全": 14116, "##虔": 19049, "嚟": 1708, "pixel": 11688, "繞": 5254, "##園": 14811, "##斷": 16231, "##绻": 18397, "culture": 13219, "桉": 3429, "##サ": 13685, "##罔": 18439, "珐": 4399, "do": 8895, "席": 2375, "攘": 3106, "##謹": 19403, "##豉": 19546, "莞": 5806, "蕃": 5931, "##di": 9172, "##粄": 18162, "ᄇ": 294, "湧": 3963, "睦": 4721, "缜": 5360, "豎": 6492, "##籤": 18154, "##糬": 18196, "##腿": 18654, "牙": 4280, "豫": 6499, "##鉤": 20119, "e2": 12357, "asics": 11849, "##勇": 14292, "植": 3490, "rom": 8891, "ㄍ": 653, "v5": 11133, "##勧": 14307, "弾": 2489, "##畳": 17589, "##⁄": 13510, "##蠣": 19169, "##链": 20273, "##迩": 19888, "ᅡ": 304, "篱": 5075, "朔": 3304, "诩": 6424, "##www": 9718, "##stone": 12795, "##予": 13807, "##侵": 13966, "閑": 7277, "1998": 8368, "##胖": 18580, "##鼾": 21023, "##舐": 18709, "掖": 2962, "篩": 5072, "##饴": 20712, "咭": 1491, "槭": 3549, "##ice": 8877, "##青": 20528, "##並": 13756, "纭": 5282, "yang": 12086, "恬": 2620, "nb40": 12965, "##娶": 15091, "##筷": 18096, "##ᅳ": 13482, "##谲": 19538, "綜": 5198, "curry": 13014, "##钢": 20224, "##▂": 13597, "筑": 5029, "湮": 3965, "＊": 8022, "悚": 2639, "肖": 5494, "薹": 5963, "philips": 10749, "let": 9946, "[unused77]": 77, "##申": 17566, "##碴": 17881, "##羸": 18472, "##蔫": 18978, "##辕": 19841, "##隸": 20463, "哇": 1505, "##霽": 20523, "##绡": 18378, "##潤": 17113, "玖": 4376, "##ini": 10489, "##勢": 14305, "science": 9982, "涤": 3882, "##ᵉ": 13490, "taiwan": 8674, "咘": 1478, "擅": 3078, "訝": 6252, "距": 6655, "##佳": 13938, "歷": 3644, "稻": 4940, "姝": 2003, "乔": 730, "##张": 15533, "絡": 5181, "##竜": 18049, "##賤": 19604, "##蹑": 19749, "蝟": 6074, "摄": 3029, "鎧": 7118, "0t": 10691, "##ーン": 12966, "023": 13244, "##氣": 16763, "終": 5173, "sd": 9201, "##犹": 17367, "から": 8526, "繹": 5261, "##僥": 14070, "ｗedding": 10069, "##膺": 18670, "##穴": 18011, "妞": 1977, "##喵": 14668, "唸": 1551, "sdk": 10302, "ngo": 11770, "##居": 15290, "##贫": 19634, "##د": 13431, "超": 6631, "後": 2527, "eva": 10154, "##jo": 9839, "##捩": 16001, "490": 10566, "##态": 15635, "葚": 5866, "##渍": 16988, "2021": 9960, "##聶": 18536, "##蛛": 19090, "hong": 8881, "##义": 13778, "##雹": 20498, "daily": 10210, "##荻": 18851, "##篙": 18124, "bigbang": 11122, "howard": 11312, "##昼": 16283, "##隱": 20460, "地": 1765, "2009": 8170, "##囪": 14791, "谦": 6472, "爛": 4258, "##句": 14425, "nhk": 9689, "visa": 8958, "##包": 14316, "05": 8137, "##伏": 13883, "ptt": 9773, "##垠": 14859, "臃": 5620, "淘": 3905, "##gn": 12135, "瓮": 4483, "##瞋": 17790, "##ix": 9330, "info": 9603, "##戰": 15839, "题": 7579, "##啷": 14636, "膝": 5607, "坯": 1791, "畲": 4531, "oled": 8868, "##x5": 12704, "n3": 12905, "骗": 7745, "辭": 6798, "##事": 13809, "そんな": 11950, "邛": 6926, "##咒": 14530, "##擘": 16143, "##ｌ": 12035, "##uid": 12520, "##戌": 15821, "##菈": 18881, "##tsu": 12230, "##︰": 21049, "獲": 4363, "##捆": 15985, "##г": 13404, "loading": 10878, "##爷": 17324, "##边": 19861, "锂": 7220, "★★★★": 11815, "⑷": 418, "■": 459, "d3": 10966, "128gb": 12336, "nvidia": 9503, "##愚": 15751, "##淅": 16954, "焯": 4194, "##chat": 10720, "##頒": 20580, "1gb": 12206, "##剩": 14254, "##敍": 16185, "譚": 6354, "##摹": 16101, "information": 11237, "##翹": 18492, "##转": 19817, "799": 10882, "拒": 2867, "##努": 14279, "##游": 17009, "##瑁": 17496, "##贈": 19614, "漸": 4041, "mark": 8970, "賽": 6555, "##葛": 18924, "◆◆": 11146, "荊": 5771, "##走": 19681, "鈦": 7049, "骐": 7743, "羟": 5405, "佢": 873, "024": 13002, "100km": 10915, "扒": 2801, "vim": 11922, "2008": 8182, "##漪": 17091, "##槤": 16605, "##現": 17469, "▪": 461, "湯": 3966, "##遣": 19954, "緋": 5216, "##優": 14089, "##屬": 15310, "氡": 3704, "楹": 3516, "richard": 9875, "##啖": 14618, "宕": 2133, "ｊ": 8060, "##ことを": 12236, "检": 3466, "gay": 12211, "帖": 2365, "梦": 3457, "##竇": 18044, "堀": 1827, "璉": 4463, "浯": 3860, "谶": 6483, "足": 6639, "10g": 9890, "狈": 4314, "辽": 6808, "booking": 9309, "##檔": 16650, "踴": 6682, "nike": 8702, "骶": 7758, "婢": 2043, "##蕨": 18995, "##ator": 11762, "##硕": 17855, "##糾": 18201, "##娃": 15072, "##⑸": 13570, "##よう": 10177, "##燈": 17293, "阖": 7335, "##ent": 8936, "鄒": 6966, "number": 11333, "##彙": 15556, "ui": 8840, "##tant": 12028, "椎": 3491, "thu": 8610, "##若": 18792, "错": 7231, "##荽": 18853, "อ": 282, "另": 1369, "##ya": 8741, "譲": 6360, "bay": 10251, "奏": 1941, "433": 13131, "##葷": 18936, "##絵": 18246, "闺": 7318, "奎": 1940, "锈": 7224, "鬚": 7780, "##弩": 15537, "##純": 18212, "遒": 6886, "##鸳": 20949, "##對": 15262, "蚊": 6011, "##峤": 15342, "傢": 993, "dit": 13231, "##12": 8455, "##搖": 16072, "institute": 11205, "##。": 13646, "岐": 2262, "35": 8198, "050": 11972, "240": 8821, "##桀": 16479, "木": 3312, "##槛": 16603, "##立": 18046, "##蒋": 18939, "##踵": 19740, "##爆": 17312, "邢": 6928, "1963": 9155, "##ha": 8778, "##セ": 13686, "##mix": 11091, "hadoop": 10956, "韻": 7512, "##02": 8904, "悻": 2655, "news": 8501, "side": 12666, "wi": 8541, "##十": 14339, "##毂": 16731, "##芈": 18747, "##m": 8175, "##鸟": 20938, "##錠": 20148, "vmware": 11449, "##de": 8510, "##濾": 17156, "渺": 3953, "g1": 11528, "smap": 13175, "伺": 848, "嗝": 1629, "率": 4372, "麩": 7932, "##髅": 20820, "輟": 6741, "belle": 13058, "##苹": 18798, "##舀": 18698, "##狡": 17379, "##浮": 16916, "杭": 3343, "##茉": 18805, "侑": 894, "##纲": 18343, "##烂": 17219, "##美": 18458, "压": 1327, "壓": 1886, "线": 5296, "chan": 9318, "征": 2519, "呜": 1449, "143": 9572, "##喘": 14653, "##縁": 18290, "″": 346, "club": 8907, "##高": 20827, "##團": 14814, "坎": 1775, "##咕": 14532, "techorz": 12389, "##hua": 13074, "[unused36]": 36, "序": 2415, "暫": 3271, "##イ": 9509, "##own": 11751, "─": 427, "ちてすか": 9880, "8gb": 11257, "蟀": 6091, "##怂": 15636, "昧": 3218, "##枸": 16432, "##碌": 17865, "##誕": 19350, "紺": 5172, "##＄": 21073, "蝠": 6075, "come": 11385, "呋": 1441, "蜜": 6057, "web": 8353, "衅": 6119, "rights": 9615, "##瓜": 17535, "##宴": 15212, "飄": 7597, "886": 12050, "1g": 10719, "super": 8988, "##独": 17381, "蔣": 5919, "##しい": 10899, "##爾": 17330, "##飲": 20671, "谁": 6443, "##驭": 20774, "ㄆ": 648, "##lu": 10079, "襟": 6199, "point": 9891, "##fork": 10618, "na": 11469, "颤": 7588, "##觉": 19287, "邕": 6925, "茹": 5765, "味": 1456, "[unused2]": 2, "谚": 6464, "牯": 4290, "##哌": 14566, "##騙": 20757, "##鸿": 20953, "##ⁿ": 13513, "##⊙": 13551, "##箍": 18102, "##sta": 10949, "賡": 6544, "##懈": 15802, "感": 2697, "45": 8208, "##瘡": 17661, "敞": 3139, "锲": 7244, "闰": 7311, "悩": 2645, "##宛": 15195, "##耿": 18518, "##顔": 20600, "わ": 583, "鏽": 7131, "隻": 7407, "##唉": 14593, "##權": 16666, "惨": 2673, "##熹": 17288, "##雀": 20468, "亟": 766, "##焜": 17248, "彰": 2511, "##改": 16178, "##臂": 18676, "##茶": 18820, "##啤": 14623, "##齢": 21030, "淌": 3901, "さ": 546, "cf": 9191, "##謠": 19400, "##玄": 17428, "壊": 1884, "last": 10148, "##安": 15185, "ms": 9396, "掺": 2982, "##除": 20427, "##冼": 14166, "intel": 8781, "##拦": 15939, "##箕": 18106, "､": 8084, "229": 10608, "##蝶": 19136, "2m": 10725, "篆": 5062, "db": 9767, "##ل": 13435, "態": 2706, "rebecca": 10418, "##嗤": 14690, "##叵": 14439, "繼": 5262, "翎": 5423, "##缉": 18408, "##驀": 20761, "##009": 11219, "soc": 11405, "熨": 4227, "##那": 19986, "[unused90]": 90, "##嗽": 14701, "##汰": 16800, "##dge": 12025, "##谬": 19534, "190": 8979, "赖": 6609, "##撇": 16107, "熾": 4232, "止": 3632, "讹": 6388, "top100": 10124, "##圄": 14805, "靛": 7476, "##崛": 15364, "r": 160, "摩": 3040, "##葳": 18934, "adsl": 13080, "##態": 15763, "106": 8438, "##秭": 17972, "##邊": 19977, "##鈕": 20103, "陪": 7373, "paul": 8999, "##б": 13402, "f3": 11651, "##按": 15959, "##慰": 15777, "拙": 2873, "##粽": 18181, "倆": 941, "毫": 3690, "wikia": 8708, "352": 12091, "##拄": 15913, "せます": 10046, "months": 10195, "##韦": 20561, "尋": 2204, "##尽": 15283, "lamigo": 12536, "绚": 5315, "##樁": 16612, "##愈": 15746, "##即": 14372, "ar": 8673, "吻": 1431, "艦": 5677, "叟": 1362, "擦": 3092, "攸": 3120, "鏘": 7125, "##仿": 13877, "625": 12218, "##堿": 14902, "[unused58]": 58, "慳": 2721, "痪": 4586, "ワークケートの": 12156, "337": 12129, "衲": 6140, "##缎": 18409, "##饿": 20719, "##幂": 15443, "仗": 801, "##歓": 16685, "##湧": 17020, "##滞": 17062, "减": 1121, "##繃": 18304, "革": 7484, "##梁": 16505, "狼": 4331, "study": 12685, "##嚓": 14763, "##台": 14435, "##曼": 16351, "峒": 2282, "nba": 8391, "inn": 9696, "posts": 10639, "voice": 11258, "##薯": 19018, "##赓": 19664, "⇒": 375, "##哪": 14582, "絮": 5185, "刍": 1150, "451": 13068, "喬": 1605, "##依": 13955, "痞": 4579, "x9": 12460, "##型": 14855, "##略": 17583, "膜": 5606, "轟": 6755, "model": 9264, "##79": 9495, "display": 11830, "##喺": 14672, "##纨": 18335, "##脛": 18616, "##攝": 16166, "##dan": 13184, "##拓": 15925, "##舺": 18728, "##cel": 11786, "##╰": 13594, "##恩": 15674, "⑨": 413, "フ": 621, "産": 4497, "診": 6262, "轍": 6753, "苞": 5731, "video": 9539, "x2": 10104, "asp": 9596, "##sue": 11872, "##珉": 17452, "##设": 19449, "##败": 19628, "繩": 5256, "##融": 19141, "2015": 8119, "9595": 13043, "##邂": 19972, "##矗": 17812, "##帷": 15438, "##~": 13347, "##萨": 18912, "┅": 431, "嫦": 2074, "瘀": 4595, "##鵬": 20925, "拄": 2856, "368": 11642, "殖": 3658, "##龜": 21047, "##繼": 18319, "##✨": 13637, "择": 2885, "楷": 3514, "##壺": 14960, "##ﾗ": 21117, "##θ": 13386, "6221": 12580, "dean": 12440, "##澀": 17123, "##ート": 9006, "##mah": 10394, "144": 9494, "its": 12894, "„": 338, "august": 9217, "##呲": 14512, "３０": 10684, "##虬": 19059, "ᅮ": 315, "垦": 1805, "##贪": 19633, "##痴": 17647, "##泉": 16844, "##糅": 18184, "g4g": 10613, "舊": 5648, "120": 8290, "##嬢": 15141, "##ivity": 12165, "弟": 2475, "舵": 5666, "##鋒": 20138, "##绰": 18390, "1953": 9268, "##ude": 11997, "##姹": 15068, "した": 8819, "e3": 10440, "##癖": 17676, "炁": 4138, "kl": 13289, "##きました": 12055, "掘": 2963, "##た": 8856, "a9": 11094, ".": 119, "##荚": 18835, "##sh": 8613, "##阜": 20395, "}": 171, "##お": 8345, "##firm": 12240, "删": 1160, "毆": 3676, "鶩": 7872, "##bscribe": 12980, "##祖": 17919, "##tti": 11279, "##蟋": 19151, "¹": 186, "靚": 7475, "丨": 701, "昙": 3214, "﹐": 8000, "区": 1277, "##賑": 19596, "puma": 11803, "廈": 2441, "##団": 14788, "##喰": 14664, "##池": 16794, "ⓘ": 426, "╞": 441, "##弱": 15540, "亳": 780, "には": 8738, "970": 13314, "鄺": 6976, "##亞": 13822, "411": 12686, "##角": 19292, "埸": 1823, "淪": 3914, "烊": 4165, "豔": 6494, "3kg": 9619, "黔": 7948, "##膨": 18667, "##苯": 18795, "##他": 13857, "##審": 15239, "##楔": 16560, "影": 2512, "扬": 2813, "蹬": 6700, "mobile": 9119, "##砺": 17848, "##遊": 19936, "##籲": 18157, "馋": 7669, "##熵": 17287, "##侖": 13952, "##栓": 16467, "##り": 8506, "譽": 6363, "##穗": 18007, "##戎": 15823, "##舆": 18701, "##荤": 18841, "##葚": 18923, "acca": 11417, "瀨": 4114, "匹": 1276, "##倘": 14008, "##诈": 19457, "##tel": 11246, "翩": 5431, "##吆": 14450, "##絆": 18233, "##ified": 13237, "##杞": 16394, "##犄": 17356, "昀": 3202, "##89": 9402, "擡": 3090, "jeff": 11147, "##劈": 14264, "滩": 4013, "##吾": 14491, "讷": 6386, "##境": 14919, "##激": 17137, "##莹": 18873, "##荠": 18838, "##闵": 20371, "##tch": 9496, "肝": 5498, "avenue": 12226, "##怠": 15648, "##鈀": 20098, "哥": 1520, "諳": 6326, "##潢": 17112, "##莅": 18854, "##ho": 9570, "##得": 15590, "▬": 463, "##ハ": 12838, "q7": 12938, "．": 8026, "圾": 1769, "##叢": 14422, "##諮": 19381, "pizza": 10315, "##ᄅ": 13458, "##梗": 16510, "槎": 3542, "拋": 2862, "汇": 3726, "##pp": 9586, "##ツ": 10419, "搞": 3018, "##ggle": 11747, "bang": 12067, "##汁": 16780, "##歸": 16702, "##策": 18089, "##鮭": 20860, "ならワークケートへ": 12154, "##uce": 12051, "蛛": 6033, "##ｗ": 21099, "##す": 8764, "有": 3300, "oppo": 8806, "##嬿": 15148, "fgo": 11401, "##併": 13939, "##圃": 14804, "##項": 20574, "皇": 4640, "収": 1354, "籌": 5092, "しています": 9257, "af": 11782, "jane": 11909, "##鈾": 20110, "##眠": 17754, "##壳": 14957, "##萍": 18904, "g9": 11157, "ヲ": 641, "齡": 7972, "##ller": 11284, "寇": 2167, "泣": 3798, "full": 9904, "##陀": 20408, "udnbkk": 11339, "##闘": 20358, "からの": 12498, "圭": 1764, "[unused74]": 74, "##惊": 15718, "##由": 17564, "##賊": 19595, "騨": 7701, "##kw": 10446, "##苓": 18782, "撩": 3061, "爺": 4270, "##咐": 14529, "ⅰ": 363, "卤": 1307, "##かな": 13081, "働": 1007, "务": 1218, "酱": 6996, "篷": 5076, "淬": 3916, "##base": 10918, "綿": 5214, "key": 9232, "##娉": 15077, "##衅": 19176, "##pl": 12569, "non": 12002, "##✖": 13635, "##倚": 14010, "##嗯": 14695, "##肛": 18554, "员": 1447, "尹": 2222, "tbs": 11773, "##ᄆ": 13459, "##bi": 9350, "[unused14]": 14, "人": 782, "刽": 1175, "堺": 1844, "滨": 4012, "貔": 6507, "21": 8128, "360": 8286, "##ba": 8668, "209": 10381, "##し": 8733, "族": 3184, "##拟": 15934, "##擾": 16158, "蜍": 6050, "颦": 7589, "易": 3211, "##鉴": 20120, "1895": 10794, "##麒": 20982, "旧": 3191, "洞": 3822, "np": 11203, "##囍": 14776, "part": 9124, "呈": 1439, "##碳": 17880, "##米": 18158, "剂": 1177, "缽": 5376, "##粧": 18172, "諸": 6328, "邱": 6937, "##74": 9743, "##淘": 16962, "##\\": 13340, "笋": 5008, "✰": 503, "kbs": 10655, "##绔": 18368, "504": 12808, "86": 8352, "-": 118, "絵": 5189, "変": 1907, "gt": 9046, "鑄": 7139, "friends": 11488, "354": 11848, "tel": 11108, "##嶙": 15383, "##拚": 15931, "##隧": 20457, "##uk": 10687, "##磨": 17893, "##fit": 11768, "100m": 13037, "##早": 16250, "级": 5277, "##賂": 19590, "[unused27]": 27, "##星": 16272, "毎": 3679, "邯": 6935, "em": 13152, "##鎌": 20169, "倍": 945, "rn": 11998, "##區": 14338, "##遙": 19948, "烫": 4176, "##歳": 16699, "llc": 8236, "晁": 3228, "##mi": 8625, "饽": 7661, "di": 9796, "##賭": 19608, "50ml": 11538, "##シャンルの": 11947, "脐": 5553, "飕": 7602, "##mon": 10427, "燎": 4239, "##bat": 12671, "##儀": 14078, "##固": 14800, "箴": 5057, "##墳": 14934, "##己": 15403, "##娥": 15086, "牍": 4278, "譏": 6351, "ｂ": 8052, "##吽": 14490, "##墘": 14926, "##桧": 16500, "##紘": 18214, "##赢": 19674, "将": 2199, "煅": 4199, "##俩": 13987, "綁": 5192, "##渝": 16996, "е": 238, "##諷": 19384, "裙": 6170, "184": 10116, "倪": 960, "扫": 2812, "##猪": 17400, "##ーム": 9975, "##013": 11335, "##讧": 19430, "簿": 5089, "e5": 10695, "tech": 11402, "match": 12528, "##(": 13324, "##尴": 15276, "##川": 15392, "sofascore": 11555, "銖": 7070, "##鹳": 20974, "铮": 7209, "牟": 4283, "睛": 4714, "斎": 3155, "##逆": 19904, "##阑": 20389, "##ため": 10312, "##硫": 17857, "##稠": 17989, "smith": 9912, "##cal": 10384, "馴": 7683, "##燜": 17301, "適": 6900, "橘": 3580, "##槻": 16609, "##瀝": 17167, "165": 9316, "##浄": 16896, "燦": 4247, "##爪": 17316, "担": 2857, "##銷": 20134, "歌": 3625, "ad": 9145, "cake": 11683, "##踉": 19726, "斡": 3164, "勧": 1250, "ヶ": 643, "魚": 7797, "adchoice": 10999, "101vip": 11428, "##搶": 16081, "q3": 10982, "览": 6229, "##数": 16201, "##餚": 20684, "##兆": 14099, "##90": 8599, "tpp": 8855, "瓤": 4481, "##∙": 13531, "##ince": 13199, "欠": 3612, "傲": 1000, "篪": 5073, "##›": 13507, "##绒": 18366, "##绶": 18394, "##強": 15542, "quot": 10733, "##蒜": 18943, "匱": 1275, "##21": 8650, "map": 9633, "##厮": 14397, "缥": 5365, "##ました": 8861, "##ory": 9428, "裳": 6178, "っている": 11859, "兒": 1051, "angela": 12822, "##金": 20089, "##やり": 11077, "刚": 1157, "嘞": 1660, "掸": 2981, "扮": 2815, "瞋": 4733, "##颯": 20649, "惚": 2666, "1964": 9129, "瞑": 4736, "瑠": 4450, "##橘": 16637, "##藜": 19027, "姆": 1990, "桿": 3447, "付": 802, "瓴": 4485, "缈": 5350, "##61": 8978, "##習": 18481, "琏": 4420, "苯": 5738, "engine": 11764, "##辟": 19849, "枸": 3375, "560": 10541, "斌": 3154, "唳": 1549, "park": 8865, "##かあります": 12145, "##ますのて": 13071, "敏": 3130, "群": 5408, "钊": 7153, "谊": 6449, "南": 1298, "〞": 532, "璋": 4464, "shopping": 9662, "##fo": 10261, "##ute": 9710, "##邸": 19997, "嚨": 1711, "鲸": 7841, "蹟": 6695, "r11": 10808, "闕": 7299, "##届": 15294, "##濑": 17141, "washington": 12262, "s7": 9821, "壅": 1881, "騙": 7700, "##drive": 13115, "鉛": 7061, "404": 10524, "##yy": 12642, "奉": 1938, "凶": 1136, "嗅": 1618, "##整": 16203, "领": 7566, "photos": 9999, "##ｑ": 12826, "角": 6235, "##氙": 16758, "##利": 14221, "険": 7381, "##狭": 17382, "##cp": 11057, "appqq": 11898, "##胤": 18587, "##卧": 14366, "彤": 2502, "长": 7270, "07": 8155, "mcu": 10738, "##頹": 20592, "##鄢": 20027, "砖": 4778, "▌": 456, "逢": 6864, "##憬": 15796, "儲": 1033, "##提": 16047, "##畫": 17586, "##铎": 20252, "x3": 10689, "##掌": 16015, "##瘟": 17659, "##倌": 14001, "##窘": 18028, "概": 3519, "溫": 3984, "##sch": 13107, "峨": 2288, "credit": 12241, "##fs": 9222, "##3000": 13141, "证": 6395, "攥": 3114, "圏": 1753, "##и": 11000, "苗": 5728, "算": 5050, "製": 6182, "united": 9958, "##nch": 11106, "傚": 992, "秭": 4915, "妍": 1970, "##na": 8374, "ت": 264, "##夙": 14970, "ｃｐ": 8836, "ع": 268, "a": 143, "彝": 2500, "朽": 3323, "lg": 8589, "835": 10462, "锺": 7247, "##攘": 16163, "##柯": 16449, "鴦": 7860, "孪": 2112, "##檸": 16657, "肩": 5504, "孕": 2097, "頓": 7524, "##沿": 16841, "濃": 4083, "##破": 17845, "邻": 6943, "##毛": 16745, "赊": 6601, "##なる": 11666, "绊": 5304, "##櫻": 16664, "##祢": 17928, "癡": 4622, "喔": 1595, "opera": 10917, "##奸": 15017, "##谔": 19516, "##谩": 19532, "##逸": 19928, "##踐": 19730, "##熒": 17279, "峴": 2293, "sars": 12390, "制": 1169, "盲": 4683, "睇": 4710, "气": 3698, "306": 10576, "蹺": 6705, "cbd": 11249, "span": 12537, "899": 12612, "##»": 13359, "茂": 5744, "##伴": 13902, "##冶": 14163, "跑": 6651, "##嘖": 14711, "##面": 20538, "##ze": 9349, "##揶": 16059, "##噤": 14746, "咬": 1490, "潴": 4062, "282": 11431, "##哲": 14585, "2020": 8439, "住": 857, "##七": 13730, "在": 1762, "蔗": 5915, "##work": 12282, "##誣": 19355, "廂": 2439, "郝": 6950, "1986": 8629, "##タ": 11011, "##听": 14477, "##湾": 17025, "##吸": 14486, "gartner": 12784, "##號": 19055, "##琏": 17477, "铛": 7197, "魏": 7794, "绡": 5321, "##菠": 18890, "晉": 3231, "绘": 5313, "鳍": 7846, "賺": 6553, "##野": 20086, "槌": 3540, "##side": 11756, "##cky": 11216, "##新": 16230, "##赡": 19673, "here": 10815, "##锤": 20294, "窘": 4971, "當": 4534, "##阿": 20407, "碎": 4810, "##ㄥ": 13721, "##000": 9086, "黍": 7943, "##諒": 19372, "##軋": 19780, "##釁": 20079, "##鈎": 20101, "##骄": 20791, "##鬣": 20840, "##鹌": 20961, "##姻": 15069, "##缜": 18417, "醋": 7005, "##盥": 17734, "##鹊": 20960, "憬": 2739, "please": 11744, "帘": 2366, "sina": 9606, "赢": 6617, "##犒": 17359, "##諗": 19374, "##迅": 19870, "##旎": 16240, "##連": 19922, "##龌": 21039, "##赦": 19677, "娇": 2019, "踝": 6674, "##鎂": 20167, "##a5": 12540, "ても": 9272, "jean": 10483, "鞅": 7489, "慢": 2714, "杀": 3324, "鵑": 7864, "##蒲": 18948, "##痪": 17643, "蒻": 5894, "pixstyleme3c": 8382, "觑": 6234, "滓": 3999, "遵": 6905, "壽": 1904, "289": 11520, "廿": 2457, "##ty": 8661, "holiday": 12777, "52sykb": 12846, "险": 7372, "##〃": 13647, "##dk": 12806, "##俱": 13993, "##啄": 14611, "or": 8549, "奥": 1952, "line": 8323, "##坍": 14831, "##劲": 14283, "##彆": 15548, "么": 720, "##戈": 15819, "##瑪": 17511, "##癒": 17675, "##纵": 18345, "觅": 6227, "##聿": 18540, "##ɔ": 13367, "##蔑": 18969, "296": 11545, "have": 9531, "##愣": 15755, "##認": 19348, "択": 2839, "##苔": 18783, "飙": 7604, "gg": 10206, "柠": 3387, "##沱": 16833, "##篇": 18120, "##裴": 19236, "猶": 4348, "##僱": 14074, "媛": 2056, "證": 6349, "憶": 2741, "尬": 2217, "##羣": 18464, "513": 13310, "office": 8628, "##＿": 21093, "и": 241, "归": 2495, "22": 8130, "收": 3119, "mba": 8980, "##羡": 18463, "覧": 6216, "##谆": 19504, "卯": 1312, "##唠": 14598, "##務": 14300, "##ik": 10445, "﹔": 8003, "##den": 10241, "##結": 18235, "广": 2408, "共": 1066, "309": 11289, "##滅": 17051, "##杀": 16381, "##淹": 16979, "心": 2552, "die": 11633, "戸": 2788, "##反": 14410, "チ": 609, "⑤": 409, "釣": 7037, "骚": 7746, "⒈": 420, "##踝": 19731, "跷": 6665, "##骶": 20815, "膦": 5609, "##rant": 10834, "凰": 1133, "qr": 9830, "類": 7546, "##頓": 20581, "芻": 5714, "lohas": 9757, "##蠻": 19173, "鳄": 7843, "瞟": 4740, "##僮": 14073, "##嚟": 14765, "##心": 15609, "##蘋": 19038, "##礦": 17903, "##てすか": 11278, "##-": 13329, "□": 460, "##◆": 10497, "##远": 19880, "鰍": 7812, "彈": 2492, "christian": 11824, "##騷": 20760, "##槭": 16606, "win10": 8634, "##く": 8763, "罩": 5388, "糜": 5134, "##絕": 18236, "##骑": 20801, "##锚": 20289, "##璨": 17528, "鋁": 7079, "##梆": 16507, "wordpress": 8627, "则": 1156, "##淑": 16959, "views": 9881, "s3": 10647, "##妲": 15042, "##袈": 19206, "##试": 19464, "蕴": 5943, "##襯": 19260, "鍾": 7109, "##枣": 16422, "稽": 4942, "##睨": 17779, "##體": 20825, "##籬": 18155, "##弁": 15516, "雀": 7411, "##↑": 10839, "##bet": 9704, "諷": 6327, "475": 13243, "##骆": 20793, "崴": 2311, "−": 377, "强": 2487, "overchicstoretvhome": 12450, "壞": 1889, "china": 8873, "闽": 7320, "##饑": 20697, "隐": 7391, "柢": 3388, "撻": 3071, "攀": 3102, "##拨": 15941, "##祇": 17913, "##老": 18496, "##骰": 20814, "赶": 6628, "芭": 5706, "驿": 7731, "vip": 8324, "##sa": 8606, "##凝": 14182, "##滟": 17063, "224": 10629, "##瞻": 17807, "基": 1825, "130": 8463, "##洒": 16875, "¼": 189, "##ql": 11083, "##廉": 15499, "狂": 4312, "♥": 491, "斥": 3166, "昶": 3225, "カ": 598, "歛": 3630, "##vice": 10666, "##钠": 20222, "##阻": 20406, "##eh": 12742, "441": 13013, "闫": 7307, "陳": 7376, "##漆": 17081, "##88": 8544, "##椿": 16556, "20000": 8875, "cdn": 10910, "菱": 5837, "##ィ": 12403, "袁": 6145, "笈": 5007, "鸾": 7895, "manager": 11039, "甄": 4488, "叢": 1365, "织": 5302, "sui": 10997, "sputniknews": 11376, "##膈": 18656, "滯": 4015, "裏": 6166, "##39": 9355, "##癇": 17673, "峥": 2286, "##琲": 17488, "##郧": 20012, "尚": 2213, "ap": 9392, "chi": 12205, "##ova": 13067, "##端": 18056, "##厅": 14381, "##邹": 19998, "##仕": 13856, "[unused49]": 49, "北": 1266, "##2010": 9546, "##抽": 15910, "##锈": 20281, "俏": 918, "bus": 10411, "43": 8250, "##貼": 19585, "##髖": 20826, "改": 3121, "save": 13069, "属": 2247, "l": 154, "仮": 813, "優": 1032, "弹": 2486, "恻": 2629, "喹": 1614, "筲": 5037, "##缇": 18406, "鵬": 7868, "藕": 5969, "##fun": 11222, "##向": 14460, "##计": 19426, "栃": 3400, "##潮": 17117, "丝": 692, "蔘": 5916, "署": 5392, "##han": 9646, "##呱": 14511, "##缰": 18428, "##ada": 11370, "##檻": 16658, "偷": 982, "彙": 2499, "##漢": 17088, "磊": 4830, "鴛": 7859, "##ura": 10238, "##繳": 18317, "url": 8654, "##刀": 14200, "expedia": 12317, "##槍": 16598, "##铐": 20253, "饪": 7647, "##侣": 13958, "div": 11308, "##叮": 14433, "book": 9106, "##cord": 12291, "263": 10864, "##ر": 13432, "##轄": 19806, "museum": 10553, "go": 8373, "冥": 1097, "mall": 9628, "せよ": 12767, "346": 12380, "嵩": 2319, "##脯": 18620, "╠": 442, "栋": 3406, "##畝": 17581, "urban": 13101, "##q": 8326, "netflix": 10373, "##隘": 20451, "佔": 861, "##ﾄ": 21114, "轼": 6769, "谪": 6476, "灯": 4128, "##87": 9446, "##ヒ": 10374, "纹": 5292, "267": 11253, "価": 900, "ios11": 12833, "##膀": 18655, "##駅": 20743, "表": 6134, "##取": 14414, "open": 8893, "##竊": 18045, "贸": 6588, "修": 934, "厅": 1324, "メ": 627, "捕": 2936, "痱": 4589, "##•": 13499, "##诡": 19474, "睹": 4726, "##棵": 16541, "１６": 12963, "喘": 1596, "紹": 5171, "晨": 3247, "sao": 12053, "餓": 7625, "125": 8752, "##敞": 16196, "##梵": 16521, "[unused79]": 79, "录": 2497, "##物": 17346, "訟": 6253, "##⇒": 13527, "##煞": 17265, "1991": 8555, "徇": 2522, "迁": 6810, "##嗚": 14684, "##藩": 19031, "泗": 3792, "蜊": 6049, "##謊": 19392, "##蜿": 19122, "嬰": 2087, "##訛": 19308, "[unused95]": 95, "##難": 20489, "257": 11027, "##圳": 14823, "俚": 923, "##坎": 14832, "听": 1420, "010": 9138, "★★": 10034, "##銃": 20123, "瘦": 4607, "##ａ": 10094, "聾": 5482, "菅": 5822, "false": 11457, "惊": 2661, "仍": 793, "龅": 7978, "魁": 7788, "787": 13029, "汛": 3733, "##29": 8887, "##卓": 14351, "##ram": 9661, "##苄": 18775, "gtx": 11069, "鄔": 6967, "##聘": 18527, "═": 438, "##dog": 13315, "烁": 4161, "卞": 1302, "端": 4999, "§": 176, "##cat": 10869, "384": 12344, "##话": 19470, "##載": 19791, "##麻": 20994, "撵": 3068, "胡": 5529, "蚌": 6012, "##愧": 15757, "玟": 4378, "##介": 13849, "##晌": 16290, "##琮": 17486, "##势": 14289, "##疽": 17621, "乒": 728, "steam": 9325, "扩": 2810, "##ris": 9848, "##园": 14793, "##裨": 19233, "##＜": 21086, "##舰": 18721, "异": 2460, "2000": 8202, "##企": 13878, "f5": 12173, "##富": 15225, "man": 8791, "橄": 3576, "美": 5401, "##且": 13741, "##爺": 17327, "##涤": 16939, "陀": 7351, "##豢": 19554, "##ef": 9679, "##圜": 14815, "夫": 1923, "##敲": 16202, "滄": 3993, "500": 8195, "29": 8162, "113": 8989, "荘": 5777, "##琵": 17491, "public": 10672, "##萩": 18913, "##蘼": 19043, "羥": 5409, "##ud": 9849, "leave": 10619, "##咭": 14548, "##鲸": 20898, "##ap": 8872, "狸": 4329, "囤": 1732, "##叁": 14402, "晌": 3233, "汀": 3722, "##顾": 20617, "貰": 6521, "055": 9659, "識": 6352, "陂": 7352, "骧": 7754, "払": 2804, "№": 361, "靖": 7473, "##test": 11574, "摧": 3039, "##е": 13406, "萨": 5855, "##士": 14951, "##旅": 16237, "拢": 2879, "泫": 3802, "##栩": 16471, "葉": 5864, "ai": 8578, "mix": 9678, "纤": 5275, "island": 10262, "錨": 7094, "##殞": 16717, "##轨": 19815, "攬": 3117, "##艇": 18730, "##遺": 19966, "##闊": 20352, "旺": 3200, "楨": 3509, "##躉": 19767, "♠": 488, "砣": 4782, "聶": 5479, "殇": 3652, "415": 12114, "1250": 11591, "荷": 5792, "##ged": 11765, "└": 435, "##汕": 16787, "##web": 9944, "：": 8038, "汴": 3745, "light": 10310, "buff": 11321, "##¥": 13350, "##邕": 19982, "##乜": 13792, "##糊": 18185, "儋": 1026, "edit": 11150, "##疸": 17618, "笺": 5020, "##懷": 15812, "##oka": 12279, "##ig": 11421, "##伐": 13884, "盈": 4659, "掴": 2979, "脂": 5544, "3～5": 12222, "淺": 3923, "##斟": 16220, "##旺": 16257, "int": 10673, "##疔": 17600, "##稟": 17988, "##误": 19485, "##類": 20603, "sarah": 12455, "漂": 4023, "mwc": 12184, "##鞋": 20547, "榄": 3520, "##藕": 19026, "嘅": 1646, "璨": 4471, "##ink": 11119, "缀": 5345, "##欸": 16675, "##れて": 12034, "##搅": 16066, "孖": 2098, "##唰": 14604, "##黨": 21012, "##〝": 13666, "懂": 2743, "##布": 15414, "##貢": 19570, "##ᄐ": 13467, "##pass": 13206, "撐": 3052, "window": 12158, "扔": 2803, "##振": 15977, "##腎": 18632, "窦": 4977, "##眾": 17764, "xddd": 12059, "ム": 626, "273": 10345, "one": 8429, "眾": 4707, "稼": 4941, "捏": 2934, "肛": 5497, "t2": 10927, "##诧": 19480, "潰": 4061, "侬": 906, "##鸽": 20951, "ちてない": 9804, "##yan": 10777, "##钎": 20211, "翦": 5430, "畹": 4536, "supreme": 11272, "##〖": 13663, "ソ": 607, "霁": 7445, "忠": 2566, "浮": 3859, "wan": 10686, "##kit": 11217, "00z": 9337, "##窃": 18018, "##γ": 13382, "湊": 3957, "126": 9022, "曲": 3289, "蓖": 5904, "east": 10990, "##盼": 17744, "##砭": 17842, "##驶": 20781, "斐": 3156, "##憫": 15795, "嗚": 1627, "macbook": 9173, "##致": 18693, "]": 140, "铄": 7191, "ø": 194, "##news": 10040, "##蓄": 18955, "義": 5412, "##哉": 14564, "kiehl": 8587, "兜": 1055, "##いて": 10042, "##渺": 17010, "##蔡": 18975, "継": 5196, "##tein": 12508, "怕": 2586, "##两": 13754, "867": 11932, "疹": 4562, "≦": 396, "##恆": 15661, "307": 10486, "##懒": 15807, "##鏗": 20181, "耒": 5448, "##栈": 16461, "##璁": 17517, "量": 7030, "##乩": 13799, "##岗": 15323, "肥": 5503, "##界": 17575, "隼": 7408, "傻": 1004, "釧": 7039, "腐": 5576, "邃": 6916, "atm": 8366, "鳌": 7845, "##а": 11318, "夔": 1910, "##尋": 15261, "##觀": 19280, "偌": 972, "巒": 2332, "２４": 12620, "icp": 9658, "銑": 7068, "帛": 2368, "329": 11705, "羞": 5404, "##なと": 11710, "fung": 13238, "##箐": 18104, "齋": 7969, "##澳": 17135, "##创": 14215, "##ket": 11820, "royal": 11019, "gd": 11729, "する": 8553, "##next": 12397, "##容": 15216, "菩": 5835, "##001": 9942, "##岖": 15322, "##芪": 18760, "##ω": 10506, "噔": 1683, "奄": 1935, "看": 4692, "##uo": 9731, "##兹": 14131, "莉": 5799, "颅": 7565, "##77": 8959, "1956": 9076, "##敷": 16205, "##铠": 20257, "##于": 13811, "[unused21]": 21, "##啕": 14617, "##嚮": 14769, "givenchy": 12065, "##38": 9137, "457": 12119, "##廓": 15501, "##瘠": 17660, "##鋪": 20140, "good": 9005, "##abc": 12072, "孱": 2116, "##徳": 15602, "簫": 5084, "##閔": 20337, "##⑷": 13569, "##谷": 19541, "##纂": 18321, "##与": 13737, "kb": 9843, "382": 12163, "##啻": 14638, "##章": 18052, "##嘞": 14717, "##囟": 14784, "燒": 4240, "辊": 6779, "##啓": 14616, "##晴": 16309, "霖": 7457, "##烷": 17237, "塑": 1848, "699": 10439, "##ague": 12998, "観": 6219, "##溅": 17029, "##烯": 17236, "侏": 893, "yy": 9453, "炊": 4141, "頒": 7523, "11": 8111, "⒊": 422, "oo": 11383, "とても": 12709, "starbucks": 12919, "##і": 13426, "tesla": 11564, "##ᄂ": 13456, "##功": 14273, "鰾": 7817, "##促": 13971, "##､": 21106, "严": 698, "##茯": 18815, "##韶": 20568, "##過": 19939, "##ume": 11465, "约": 5276, "砭": 4785, "∟∣": 12979, "##✪": 13638, "##魯": 20855, "師": 2374, "彪": 2507, "##p": 8187, "##lan": 9475, "##ugh": 12667, "##郢": 20009, "淇": 3899, "嚎": 1703, "server": 8896, "谯": 6479, "馅": 7666, "##另": 14426, "缴": 5373, "粟": 5112, "##ᅮ": 13479, "效": 3126, "煲": 4216, "拍": 2864, "咆": 1467, "google": 8190, "it": 8233, "##ii": 8917, "##ｒ": 11586, "##毘": 16743, "##语": 19484, "##苕": 18784, "##股": 18557, "頑": 7522, "虢": 5999, "巔": 2333, "ο": 222, "托": 2805, "##雲": 20494, "##錨": 20151, "拡": 2878, "##λ": 13389, "##een": 10929, "呎": 1442, "礫": 4848, "綠": 5199, "##填": 14913, "嘤": 1664, "@": 137, "褶": 6195, "##奖": 15003, "##終": 18230, "戚": 2774, "蓆": 5899, "楮": 3512, "飆": 7598, "october": 9548, "##嘢": 14719, "##潟": 17111, "##龊": 21037, "懶": 2754, "source": 9014, "what": 9100, "##劊": 14266, "##＇": 21076, "##ies": 8773, "鱿": 7825, "##修": 13991, "岁": 2259, "##珀": 17448, "hpv": 11067, "##勉": 14293, "##紋": 18208, "##荔": 18832, "##薏": 19008, "##蚕": 19071, "##蜂": 19101, "1940": 9211, "##攢": 16168, "##苻": 18799, "休": 828, "讽": 6391, "##ß": 13361, "##诰": 19486, "##嘩": 14723, "扉": 2796, "##雒": 20481, "##颓": 20632, "##41": 9281, "##cle": 11619, "##緋": 18273, "##桉": 16486, "##纭": 18339, "##彩": 15563, "嗎": 1621, "皴": 4652, "##gion": 13258, "讴": 6384, "##窦": 18034, "な": 557, "##蛮": 19094, "謎": 6336, "##弒": 15525, "塞": 1853, "iphone": 8210, "cell": 11490, "general": 11568, "努": 1222, "诀": 6394, "##艰": 18737, "眙": 4694, "##隻": 20464, "##萧": 18911, "希": 2361, "##罹": 18452, "堙": 1835, "傍": 988, "窩": 4979, "##锅": 20279, "##掳": 16035, "##荸": 18850, "ي": 274, "威": 2014, "xxxx": 12243, "啷": 1579, "##棒": 16529, "##錘": 20146, "##餃": 20675, "踩": 6678, "±": 181, "1989": 8528, "##ian": 8750, "##燄": 17292, "##擞": 16145, "##壬": 14952, "999": 9098, "##茸": 18821, "##缴": 18430, "雍": 7420, "13": 8124, "##果": 16419, "##ｓ": 10721, "州": 2336, "armani": 11037, "楔": 3503, "##雏": 20479, "寝": 2173, "##凌": 14176, "いた": 12312, "##ヌ": 13690, "屿": 2257, "诃": 6396, "##組": 18232, "##nar": 12469, "epson": 12735, "##妹": 15044, "掠": 2966, "##淤": 16967, "痛": 4578, "嘲": 1672, "雙": 7427, "gap": 10130, "##data": 11792, "##nor": 12245, "##笹": 18076, "④": 408, "孢": 2107, "渊": 3929, "愣": 2698, "##尻": 15281, "蛤": 6035, "##峭": 15347, "峽": 2296, "##橐": 16636, "1922": 10209, "褻": 6196, "##而": 18502, "時": 3229, "玳": 4387, "绿": 5344, "##蹩": 19756, "exe": 9464, "gallery": 12595, "##ience": 13225, "ppp": 9230, "##海": 16919, "踏": 6672, "##祭": 17931, "←": 368, "fintech": 12234, "哺": 1529, "てきちゃいます": 12136, "##差": 15402, "htc": 8530, "##髮": 20830, "乎": 725, "獗": 4357, "##仝": 13861, "145": 9390, "##贓": 19618, "巩": 2343, "library": 11616, "ken": 11314, "膠": 5608, "丁": 672, "ｑ": 8067, "##使": 13943, "振": 2920, "銀": 7065, "400": 8230, "48": 8214, "vdc": 10888, "##寅": 15222, "##脓": 18612, "羸": 5415, "##σ": 13396, "##瀏": 17161, "壁": 1880, "羧": 5410, "connect": 12280, "杞": 3337, "##聒": 18524, "tom": 9487, "##席": 15432, "瑚": 4445, "犷": 4308, "##腾": 18653, "##璃": 17518, "贬": 6578, "嶽": 2329, "泼": 3812, "鹌": 7904, "iherb": 11040, "##ᄃ": 13457, "嚷": 1714, "popular": 11880, "##蕙": 18993, "##tee": 12729, "里": 7027, "##嬸": 15147, "醺": 7020, "##疆": 17595, "するとあなたにもっとマッチした": 12153, "ceo": 8371, "迸": 6838, "860": 12468, "##対": 15251, "##輪": 19800, "幼": 2405, "伟": 836, "##①": 13556, "吩": 1418, "1908": 11046, "##啊": 14614, "貿": 6530, "##词": 19461, "##æ": 13362, "藻": 5976, "绯": 5332, "##2d": 12675, "蓉": 5900, "蹈": 6688, "６": 8034, "坠": 1785, "##軼": 19787, "##鉄": 20112, "##º": 13358, "太": 1922, "ナ": 614, "##唯": 14603, "##king": 9740, "藉": 5964, "##m2": 11916, "##存": 15157, "##披": 15904, "##栃": 16457, "盗": 4668, "礡": 4845, "##寝": 15230, "##負": 19568, "ˍ": 205, "祁": 4854, "##韭": 20565, "##fe": 9568, "勘": 1242, "1923": 10236, "##惚": 15723, "##颂": 20620, "1977": 9060, "##晁": 16285, "判": 1161, "懈": 2745, "##饯": 20708, "倒": 948, "単": 1299, "疏": 4541, "##敘": 16192, "窥": 4976, "##钡": 20223, "tweet": 9874, "##烟": 17227, "##仏": 13852, "as": 8975, "##▽": 13613, "##扰": 15874, "隆": 7384, "##ff": 9049, "##钵": 20238, "##駆": 20744, "##蝨": 19134, "##×": 9569, "##ｋ": 10981, "##＝": 12092, "##匆": 14317, "##軸": 19786, "##铬": 20264, "##﹒": 21059, "small": 11988, "pinterest": 8379, "扛": 2806, "##鵑": 20921, "##沙": 16820, "鎊": 7111, "啄": 1554, "##霈": 20506, "菈": 5824, "1996": 8432, "鋅": 7080, "##琴": 17490, "##楮": 16569, "##猕": 17391, "睐": 4712, "[unused61]": 61, "爐": 4257, "221": 10118, "##嘰": 14727, "##咿": 14556, "ᆫ": 322, "##訴": 19317, "號": 5998, "邁": 6914, "##俠": 13984, "##徵": 15604, "##榖": 16583, "eclipse": 11752, "888": 9389, "年": 2399, "##釀": 20078, "##打": 15859, "吵": 1427, "啵": 1577, "鹊": 7903, "##眈": 17747, "##绥": 18381, "##连": 19882, "##陌": 20416, "##lio": 12068, "##盃": 17713, "槓": 3544, "爵": 4265, "goods": 9028, "##琪": 17484, "gary": 11560, "##遗": 19947, "##lor": 12422, "債": 1002, "氤": 3707, "##妮": 15041, "##る": 8481, "##悍": 15693, "辇": 6776, "##牙": 17337, "##脊": 18607, "桐": 3432, "##ake": 9981, "##cca": 13144, "伪": 841, "癖": 4619, "##诸": 19493, "730": 11868, "##続": 18254, "##數": 16206, "呗": 1446, "進": 6868, "campaign": 8718, "##]": 13341, "##课": 19497, "ganji": 9055, "137": 9444, "##ail": 10923, "##aka": 12417, "##tax": 13155, "壶": 1901, "滷": 4018, "unicode": 12024, "top10": 10466, "願": 7544, "啸": 1580, "##呆": 14495, "歯": 3640, "劉": 1208, "冼": 1109, "腎": 5575, "捱": 2946, "臼": 5639, "龙": 7987, "##輻": 19803, "汎": 3728, "鑑": 7141, "ミ": 625, "景": 3250, "課": 6307, "云": 756, "##窯": 18039, "comment": 9066, "绒": 5309, "尖": 2211, "620": 11078, "v3": 10066, "##扩": 15867, "##嶋": 15382, "纳": 5287, "##討": 19302, "手": 2797, "☼": 485, "母": 3678, "侃": 887, "##镐": 20313, "##卦": 14365, "##tan": 10105, "1001": 11823, "##痣": 17639, "片": 4275, "蘭": 5984, "蔫": 5921, "亀": 747, "滙": 4002, "赣": 6618, "陛": 7363, "fed": 9311, "step5": 10338, "霜": 7458, "land": 11169, "mu": 11677, "ev": 12311, "##挖": 15962, "##掏": 16016, "##點": 21010, "叹": 1386, "噼": 1700, "603": 13277, "##藉": 19021, "##闰": 20368, "##靦": 20540, "##伫": 13899, "呆": 1438, "##烙": 17225, "╱": 447, "##英": 18796, "##纳": 18344, "殊": 3654, "7866": 12081, "ᅨ": 310, "##機": 16639, "斗": 3159, "饍": 7639, "200": 8185, "烟": 4170, "##曖": 16338, "##乔": 13787, "钉": 7152, "##費": 19584, "7headlines": 11180, "##鸾": 20952, "惺": 2686, "hmv": 12985, "##δ": 13383, "##蔻": 18984, "吞": 1411, "四": 1724, "循": 2542, "comhd": 12587, "栏": 3408, "##oh": 12355, "##一": 13728, "##讞": 19425, "蔡": 5918, "轿": 6771, "##喟": 14658, "琺": 4436, "##木": 16369, "空": 4958, "臓": 5625, "##噼": 14757, "場": 1842, "跛": 6654, "##hg": 12207, "x7": 12049, "してみてくたさいね": 12142, "携": 3025, "##菲": 18895, "##裆": 19221, "280": 8933, "頰": 7532, "##炬": 17207, "##芒": 18752, "##糍": 18186, "誥": 6300, "01": 8146, "191": 10330, "fluke62max": 10946, "beyond": 12352, "##営": 14669, "##ford": 10283, "##骷": 20816, "鼬": 7963, "##盖": 17724, "姑": 1996, "##new": 10654, "##孤": 15166, "##餅": 20676, "啦": 1568, "91": 8440, "iphone7": 9440, "##その": 10372, "##卿": 14378, "##搂": 16065, "疚": 4547, "肴": 5510, "##憲": 15797, "##秀": 17956, "##19": 8818, "##潸": 17120, "##蔓": 18970, "ヒンクテンマ3": 10886, "song": 11502, "##厭": 14396, "##瞭": 17804, "骸": 7760, "##阁": 20380, "##ger": 9289, "429": 13249, "5k": 12172, "##歼": 16705, "夺": 1932, "炭": 4151, "程": 4923, "豌": 6491, "##伯": 13900, "孫": 2113, "諾": 6330, "丿": 716, "鶯": 7873, "##zen": 10549, "俺": 939, "##gan": 10622, "測": 3947, "##吶": 14485, "妳": 1986, "##胜": 18583, "##雍": 20477, "##贺": 19647, "carlo": 12628, "##謐": 19394, "1924": 10052, "丙": 688, "##纤": 18332, "榕": 3525, "玺": 4389, "##威": 15071, "忪": 2570, "冻": 1108, "鑲": 7146, "纽": 5294, "##哭": 14583, "##tte": 9786, "##綁": 18249, "##泣": 16855, "##駐": 20745, "##lter": 12171, "##逅": 19903, "rss": 8605, "##戚": 15831, "左": 2340, "荞": 5779, "##哼": 14587, "禄": 4882, "澹": 4079, "蟻": 6102, "##ation": 8794, "设": 6392, "##ы": 13424, "##棂": 16524, "##给": 18371, "載": 6734, "##xon": 12854, "##濯": 17153, "##饭": 20706, "##驅": 20762, "獷": 4365, "##365": 10422, "fe": 12605, "##瑯": 17512, "誣": 6298, "饒": 7641, "骂": 7733, "括": 2886, "mp3": 8388, "##廳": 15510, "##盹": 17743, "##lean": 13246, "##牵": 17350, "##瓮": 17540, "ol": 8972, "苦": 5736, "##降": 20417, "##順": 20575, "殡": 3661, "##咩": 14544, "耽": 5460, "##gs": 9726, "##ue": 8803, "4500": 9805, "##虞": 19054, "760": 12456, "##咨": 14543, "##醪": 20071, "##娇": 15076, "嘆": 1647, "66": 8347, "##嘶": 14731, "##逊": 19906, "##鄞": 20026, "349": 12110, "苄": 5718, "##婿": 15110, "释": 7025, "top": 8237, "##教": 16193, "话": 6413, "して": 8648, "渉": 3928, "君": 1409, "##更": 16348, "##礼": 17908, "##幟": 15449, "##甚": 17550, "##load": 11713, "##bow": 12559, "##闷": 20372, "##淌": 16958, "##惱": 15738, "跚": 6653, "##伤": 13896, "##楓": 16559, "傭": 999, "##稍": 17981, "##较": 19829, "墘": 1869, "洮": 3826, "鸟": 7881, "##覷": 19277, "##ㄇ": 13707, "##济": 16902, "稷": 4938, "##册": 14142, "cosplay": 9803, "##琛": 17479, "烧": 4173, "##原": 14390, "坛": 1781, "##彝": 15557, "十": 1282, "碧": 4819, "##戻": 15846, "堯": 1839, "岫": 2273, "箇": 5043, "820": 10398, "候": 952, "##97": 9410, "##♬": 13631, "##硯": 17860, "嗪": 1636, "##曹": 16350, "##蟬": 19156, "blue": 9036, "壘": 1888, "煨": 4213, "##虐": 19047, "##ⅳ": 13522, "g6": 12958, "##oto": 11563, "profile": 11675, "撰": 3066, "discuz": 13197, "fu": 9486, "##疡": 17607, "夙": 1913, "##智": 16312, "##潑": 17105, "##估": 13901, "圣": 1760, "折": 2835, "绥": 5324, "挽": 2924, "躪": 6715, "祥": 4872, "戈": 2762, "燜": 4244, "##は": 8319, "##ョ": 13699, "##盲": 17740, "files": 10463, "彆": 2491, "monte": 12861, "卍": 1289, "[unused54]": 54, "句": 1368, "##act": 12183, "ｍ": 8063, "倉": 942, "涟": 3878, "釀": 7021, "so": 8968, "狩": 4323, "##收": 16176, "##腴": 18647, "繇": 5249, "##悽": 15714, "##評": 19325, "##辇": 19833, "central": 10890, "##吊": 14453, "##ღ": 13453, "詠": 6271, "鈞": 7047, "##场": 14824, "##苛": 18786, "##れる": 10273, "10": 8108, "互": 757, "侠": 899, "坏": 1776, "217": 10645, "キ": 599, "500g": 12623, "##矾": 17827, "👍": 8102, "##群": 18465, "##靶": 20544, "##瞇": 17789, "姫": 2009, "争": 751, "伯": 843, "泥": 3799, "緯": 5229, "蹼": 6706, "灝": 4122, "碱": 4822, "phone": 8922, "↓↓↓": 9010, "##kb": 10285, "5g": 8711, "办": 1215, "恋": 2605, "灼": 4133, "с": 249, "讨": 6374, "##no": 8609, "kimi": 11966, "##⑤": 13560, "tower": 11102, "##忧": 15626, "##滑": 17055, "氷": 3718, "##蒂": 18938, "##說": 19360, "古": 1367, "##le": 8268, "##赋": 19659, "忒": 2560, "mems": 12530, "##鎔": 20171, "##革": 20541, "##愤": 15756, "curve": 9357, "模": 3563, "69": 8419, "##gence": 12932, "##┣": 13585, "ng": 8885, "0l": 10973, "##饶": 20714, "##屆": 15291, "##榻": 16593, "甕": 4490, "##羲": 18471, "##絶": 18247, "##隋": 20444, "##珊": 17453, "##鸨": 20945, "承": 2824, "東": 3346, "邬": 6933, "##品": 14558, "##湿": 17026, "##礴": 17906, "##诘": 19466, "##けて": 12214, "妹": 1987, "##但": 13909, "调": 6444, "##嬰": 15144, "##濡": 17148, "##頜": 20584, "萦": 5853, "侖": 895, "俎": 917, "肠": 5499, "袭": 6159, "##總": 18301, "望": 3307, "79": 8428, "峭": 2290, "##ᅦ": 13473, "##火": 17182, "发": 1355, "尉": 2202, "逅": 6846, "160": 8522, "136": 9015, "442": 13171, "##娱": 15088, "##方": 16232, "##擁": 16132, "1": 122, "柚": 3384, "##寢": 15234, "##疏": 17598, "槻": 3552, "俄": 915, "##獅": 17410, "嬢": 2084, "定": 2137, "##辭": 19855, "讲": 6382, "##il": 8742, "##惦": 15728, "谌": 6451, "logo": 8529, "##ては": 9809, "##澤": 17132, "##灼": 17190, "なと": 9744, "##地": 14822, "##第": 18075, "躬": 6717, "394": 12728, "##示": 17907, "store": 8719, "ebooks": 10186, "149": 9491, "球": 4413, "暄": 3258, "钾": 7185, "痴": 4590, "##1000": 10529, "lab": 11441, "bean": 13188, "##coin": 10160, "##貿": 19587, "涇": 3866, "##螺": 19147, "##罷": 18451, "##载": 19827, "34": 8229, "翟": 5427, "のハイト": 10583, "酥": 6989, "##８": 9414, "##分": 14203, "##帐": 15419, "##忌": 15612, "趨": 6638, "##皂": 17694, "##落": 18919, "##静": 20531, "寢": 2177, "被": 6158, "##ンス": 12090, "铜": 7198, "xz": 12999, "恵": 2625, "眸": 4704, "##ook": 10176, "##這": 19914, "##噁": 14736, "门": 7305, "15": 8115, "擴": 3097, "铝": 7199, "鳳": 7854, "##rn": 9256, "舰": 5664, "##ndi": 11874, "層": 2251, "壮": 1896, "鲤": 7834, "##壑": 14942, "##崆": 15356, "曰": 3288, "##晷": 16311, "杠": 3339, "##御": 15596, "##浃": 16895, "##螯": 19145, "##仓": 13854, "##呀": 14492, "##talk": 12534, "##宽": 15217, "##躁": 19765, "##谊": 19506, "##舟": 18717, "isofix": 11962, "1100": 9393, "剉": 1180, "浆": 3841, "##处": 14962, "##缽": 18433, "##└": 13583, "177": 10132, "##唆": 14591, "砂": 4773, "##篓": 18123, "##煨": 17270, "brake": 8550, "涣": 3881, "闹": 7317, "劝": 1214, "##ble": 8862, "##*": 13326, "music": 9057, "邵": 6939, "##lmer": 12763, "##ﾞ": 21120, "牠": 4284, "770": 13215, "##児": 14106, "##气": 16755, "池": 3737, "↑": 369, "时": 3198, "##乃": 13775, "场": 1767, "菘": 5830, "##use": 10254, "##斧": 16224, "签": 5041, "810": 11296, "##涎": 16927, "##脆": 18603, "##葩": 18928, "##召": 14431, "##讥": 19429, "##旗": 16243, "##曲": 16346, "瘟": 4602, "##望": 16364, "##轿": 19828, "##／": 21083, "##豇": 19544, "##妤": 15036, "ヘ": 622, "マ": 624, "饮": 7650, "time": 8759, "##对": 15247, "##现": 17442, "##當": 17591, "hd": 8407, "##葺": 18937, "##梨": 16516, "##bre": 12655, "蛀": 6024, "##ot": 8783, "徳": 2545, "##綺": 18267, "##讚": 19424, "##鹏": 20962, "##tton": 11190, "平": 2398, "active": 12105, "##侶": 13967, "沃": 3753, "瞎": 4735, "##この": 11087, "闭": 7308, "prada": 11617, "谣": 6469, "##师": 15417, "##漉": 17082, "##胴": 18596, "##洹": 16889, "##镖": 20316, "##姥": 15062, "雁": 7412, "##╮": 13592, "腳": 5589, "microsoft": 8775, "##倜": 14011, "拟": 2877, "##ns": 8727, "jpeg": 11985, "媽": 2061, "##ェ": 12690, "##喉": 14647, "##墾": 14936, "##插": 16048, "##豎": 19549, "##media": 10970, "甌": 4489, "##砝": 17838, "贺": 6590, "##杂": 16382, "##祎": 17916, "栎": 3407, "導": 2206, "赁": 6595, "##浪": 16914, "##閨": 20343, "##け": 9525, "燕": 4242, "##ello": 13213, "##赝": 19670, "誤": 6299, "##li": 8636, "##瞞": 17796, "雲": 7437, "府": 2424, "##†": 13498, "##腱": 18645, "##孿": 15179, "邦": 6930, "##添": 16981, "##巡": 15394, "outlet": 10071, "##椅": 16545, "qa": 10818, "##que": 9477, "亜": 764, "吆": 1393, "can": 9109, "蝨": 6077, "37": 8234, "しい": 8596, "##刁": 14201, "186": 9833, "435": 11930, "睥": 4720, "贱": 6583, "醯": 7018, "46": 8248, "18k": 10323, "##蘆": 19035, "舞": 5659, "##und": 9914, "##ナー": 12005, "wd": 12741, "##joy": 10284, "疯": 4556, "##怙": 15645, "##絨": 18241, "##芜": 18754, "1389": 12853, "悪": 2646, "##觥": 19295, "鍰": 7106, "itunes": 9041, "##ison": 10316, "jb": 13063, "##冢": 14152, "ｸ": 8089, "か": 541, "作": 868, "nature": 10467, "##征": 15576, "倜": 954, "宵": 2156, "##意": 15749, "##愫": 15758, "##諏": 19371, "ｉ": 8059, "##厄": 14380, "##共": 14123, "##怀": 15634, "##襄": 19255, "##訂": 19299, "##j": 8334, "團": 1757, "##ᅨ": 13475, "##饈": 20693, "唇": 1535, "城": 1814, "##ds": 8841, "254": 11251, "嵇": 2313, "让": 6375, "##縈": 18292, "す": 548, "麾": 7940, "##圈": 14807, "癲": 4630, "##ond": 11684, "スホンサー": 10948, "6000": 8412, "冷": 1107, "婆": 2038, "##亟": 13823, "apr": 9011, "碁": 4805, "##输": 19840, "##竟": 18051, "倾": 967, "##yu": 10329, "業": 3511, "韩": 7506, "543": 11895, "$": 109, "esc": 9307, "##闭": 20365, "谲": 6481, "##缱": 18429, "385": 11959, "就": 2218, "鬢": 7782, "##屍": 15297, "##速": 19919, "姍": 1994, "##nus": 11316, "##饕": 20699, "伴": 845, "##剔": 14245, "谅": 6446, "##奚": 15006, "##沖": 16819, "妈": 1968, "##カー": 10175, "##寶": 15245, "悯": 2648, "态": 2578, "γ": 212, "##翊": 18478, "##贤": 19627, "睢": 4718, "青": 7471, "##桃": 16482, "project": 9284, "kelly": 11394, "##谚": 19521, "##锐": 20286, "##城": 14871, "zip": 10947, "髓": 7767, "##揃": 16041, "##浅": 16897, "趾": 6644, "##砼": 17849, "魘": 7796, "淨": 3912, "##rity": 12079, "excel": 8729, "髒": 7766, "桧": 3443, "関": 7283, "##筛": 18090, "ร": 281, "崖": 2304, "胚": 5524, "胧": 5532, "##葦": 18927, "##浴": 16918, "##t": 8165, "洗": 3819, "童": 4997, "﹡": 8011, "fsm": 12807, "1994": 8447, "產": 4496, "mbc": 10648, "4200": 12395, "##蜍": 19107, "##挚": 15964, "##stin": 12921, "啮": 1573, "##ern": 9814, "ᗜ": 329, "陌": 7359, "##ある": 9762, "務": 1243, "##疼": 17620, "口": 1366, "簪": 5083, "悶": 2653, "##ｰ": 21109, "##tone": 11902, "##貌": 19562, "end": 9931, "##uel": 11866, "##进": 19879, "galaxy": 8547, "鄧": 6971, "##弟": 15532, "##坛": 14838, "##涞": 16934, "楓": 3502, "##饋": 20694, "p3": 12454, "腫": 5584, "##辑": 19839, "帐": 2362, "绸": 5339, "##詆": 19322, "##甯": 17562, "##副": 14256, "##轲": 19822, "髪": 7772, "舌": 5649, "ㄎ": 654, "壹": 1902, "##囧": 14790, "##岂": 15317, "505": 11033, "##帆": 15416, "##咚": 14537, "麴": 7933, "vc": 9438, "##唤": 14599, "##毫": 16747, "##潛": 17108, "喀": 1584, "尧": 2216, "咦": 1484, "偃": 968, "##price": 13087, "##±": 13353, "忖": 2561, "right": 10378, "##鴻": 20919, "槁": 3537, "港": 3949, "##苋": 18777, "plc": 10015, "服": 3302, "伤": 839, "bl": 10353, "柜": 3385, "category": 10633, "##怕": 15643, "##澱": 17134, "该": 6421, "xp": 8766, "427": 12575, "##锭": 20297, "▲topaug": 10558, "冠": 1094, "##毕": 16741, "##傻": 14061, "##問": 14615, "蛇": 6026, "pass": 9703, "老": 5439, "3c": 8344, "##頑": 20579, "由": 4507, "疔": 4543, "釵": 7040, "beauty": 9445, "ㄢ": 661, "張": 2484, "烤": 4171, "鴻": 7862, "##zi": 10112, "##tar": 10216, "316": 10743, "##rade": 10287, "154": 9220, "##ᅵ": 10787, "##市": 15413, "##月": 16356, "##繕": 18309, "锢": 7235, "##『": 13656, "枷": 3374, "170": 8725, "##膠": 18665, "##踮": 19737, "輿": 6748, "##ter": 8457, "##瞼": 17808, "妥": 1980, "扱": 2818, "案": 3428, "##嗎": 14678, "##成": 15825, "##睬": 17782, "##焼": 17255, "banner": 13256, "殞": 3660, "同": 1398, "癥": 4625, "##匿": 14337, "bill": 10681, "##您": 15701, "との": 11093, "##埂": 14868, "##遼": 19967, "岂": 2260, "##永": 16776, "##柠": 16444, "##盈": 17716, "攣": 3112, "##拥": 15938, "浪": 3857, "茏": 5750, "訖": 6248, "##慘": 15768, "1mdb": 12757, "昼": 3226, "ˇ": 201, "頃": 7516, "樞": 3561, "##蓿": 18968, "##镶": 20325, "氨": 3710, "ß": 191, "##半": 14345, "##形": 15558, "##ru": 10409, "##紅": 18205, "##馗": 20732, "##脹": 18625, "##銜": 20129, "1947": 9253, "罂": 5377, "continue": 10859, "蛙": 6032, "##rs": 8640, "s4": 11352, "郁": 6944, "儘": 1029, "238": 10308, "哟": 1518, "扑": 2800, "##仑": 13853, "诫": 6425, "##鳄": 20900, "网": 5381, "680": 10255, "##哈": 14563, "classic": 11524, "##妒": 15028, "##系": 18200, "##裏": 19223, "cmos": 10306, "##雌": 20476, "埃": 1812, "缇": 5349, "詭": 6279, "##忠": 15623, "彦": 2504, "晖": 3239, "pwm": 11840, "##竖": 18047, "倦": 958, "ct": 9162, "专": 683, "荼": 5795, "##vo": 10701, "353": 12115, "##珣": 17461, "##伎": 13882, "##扭": 15871, "##750": 10969, "跄": 6646, "1972": 9027, "眉": 4691, "##鋸": 20142, "簽": 5087, "ㄟ": 660, "##妾": 15046, "##硝": 17856, "樊": 3557, "龍": 7983, "##ちの": 12712, "謗": 6339, "##贱": 19640, "518": 8739, "yumi": 11697, "衍": 6122, "henry": 11361, "##篮": 18131, "‖": 337, "##蟎": 19152, "##睪": 17780, "prime": 10891, "脣": 5560, "痍": 4572, "##胳": 18595, "##mll": 10682, "鹼": 7920, "捌": 2931, "瞞": 4739, "谨": 6474, "疫": 4554, "刮": 1167, "##祯": 17932, "##冕": 14146, "雉": 7417, "##珮": 17466, "脾": 5569, "鳕": 7847, "##迪": 19889, "奘": 1948, "價": 1019, "##ll": 8390, "##!": 13317, "##雜": 20486, "182": 9952, "in": 8217, "应": 2418, "碚": 4815, "▲topdec": 10499, "郵": 6960, "鐲": 7134, "犹": 4310, "迴": 6836, "歹": 3646, "鸞": 7880, "呸": 1459, "虱": 6003, "8000": 8623, "amd": 8992, "stay": 11527, "##梅": 16506, "##驴": 20780, "##淨": 16969, "胸": 5541, "##ㄟ": 13718, "庆": 2412, "∩": 386, "png": 10246, "alex": 10179, "##憚": 15790, "ａ": 8051, "paypal": 8657, "覽": 6222, "485": 11763, "てきる": 12313, "##nc": 10507, "##ters": 12017, "990": 10278, "##碍": 17866, "ね": 560, "觥": 6238, "##室": 15204, "あ": 534, "##陵": 20434, "##徊": 15582, "trivago": 9963, "ma": 9622, "patrick": 12003, "鋰": 7084, "##als": 12707, "##吮": 14479, "懒": 2750, "##かる": 11571, "脹": 5568, "##を": 8292, "##豁": 19542, "##追": 19898, "##盔": 17723, "##穷": 18013, "##够": 14973, "鷲": 7876, "##祝": 17924, "##通": 19915, "起": 6629, "幫": 2396, "pu": 11227, "simple": 11996, "怔": 2585, "讳": 6383, "##戲": 15840, "atp": 12805, "举": 715, "頼": 7537, "虛": 5995, "寺": 2191, "粽": 5124, "##禦": 17945, "##埸": 14880, "##ious": 11737, "##琨": 17483, "social": 10832, "##霁": 20502, "抜": 2838, "残": 3655, "温": 3946, "爹": 4269, "##骅": 20792, "織": 5251, "ddos": 12887, "##ː": 13376, "贈": 6557, "增": 1872, "q2": 9898, "颚": 7580, "##吟": 14469, "诞": 6414, "##劣": 14276, "##至": 18692, "##虧": 19057, "館": 7631, "sm": 9158, "##频": 20631, "甙": 4492, "44": 8252, "##诋": 19460, "５０": 12869, "尴": 2219, "ian": 13268, "ⁿ": 354, "##llo": 11447, "##try": 11589, "##ria": 10159, "檀": 3589, "它": 2124, "##偻": 14040, "嶺": 2327, "##溟": 17036, "##辻": 19863, "ᄆ": 293, "##孪": 15169, "寵": 2187, "‹": 347, "##ee": 8854, "383": 12510, "##瑟": 17506, "##頰": 20589, "##獸": 17423, "挪": 2918, "##税": 17982, "##茅": 18804, "雨": 7433, "##險": 20459, "入": 1057, "屈": 2235, "0mm": 11368, "逆": 6847, "秧": 4913, "##旱": 16254, "##渠": 16997, "##袍": 19208, "2030": 9787, "##ors": 10903, "##や": 9164, "##挽": 15981, "##互": 13814, "##κ": 13388, "##岁": 15316, "##雙": 20484, "##鹧": 20970, "仰": 814, "more": 8384, "通": 6858, "##姿": 15070, "翱": 5433, "霊": 7451, "##濛": 17145, "隴": 7404, "##isa": 12170, "##祸": 17934, "婉": 2039, "省": 4689, "##让": 19432, "鲜": 7831, "huawei": 12247, "憫": 2738, "箏": 5046, "愷": 2702, "色": 5682, "璿": 4474, "缅": 5347, "##|": 13345, "##斐": 16213, "##ᄒ": 13469, "峤": 2285, "銷": 7077, "##杉": 16386, "##殿": 16728, "践": 6664, "change": 12319, "すく": 12616, "##热": 17235, "##籍": 18150, "##蟹": 19158, "##范": 18802, "テ": 612, "枚": 3361, "萤": 5851, "鑊": 7140, "##恻": 15686, "##呤": 14508, "ᵍ": 332, "碑": 4811, "誹": 6308, "鸥": 7886, "##＃": 21072, "泷": 3809, "##ver": 8984, "##car": 9831, "しの": 10270, "告": 1440, "貪": 6517, "##笆": 18063, "##ties": 11199, "##赅": 19656, "##64": 9165, "etf": 8946, "##橄": 16633, "##贯": 19638, "ling": 10061, "814": 11273, "p": 158, "[unused62]": 62, "微": 2544, "##160": 12765, "##秆": 17959, "兀": 1037, "涯": 3889, "##ほ": 13672, "辫": 6797, "藿": 5977, "##秩": 17971, "[unused22]": 22, "##鸯": 20948, "##牝": 17339, "##档": 16497, "##ㄍ": 13711, "##嫘": 15127, "##鄭": 20029, "##喻": 14673, "##億": 14080, "faq": 9065, "+": 116, "##ler": 8871, "##18": 8662, "##钙": 20216, "##霸": 20521, "癬": 4627, "▫": 462, "##赖": 19666, "疗": 4545, "##綑": 18251, "琪": 4427, "##裁": 19218, "##魘": 20853, "常": 2382, "##雳": 20495, "繽": 5263, "798": 12396, "稲": 4936, "##芊": 18748, "##籟": 18152, "偵": 980, "匡": 1270, "##谥": 19528, "／": 8027, "http": 8184, "亂": 748, "##颦": 20646, "耘": 5451, "﹏": 7999, "皂": 4637, "財": 6512, "剃": 1178, "##ニア": 12650, "宦": 2149, "##久": 13776, "##價": 14076, "##怡": 15649, "##矢": 17816, "眈": 4690, "暮": 3272, "##囝": 14782, "##踩": 19735, "遮": 6902, "##冉": 14140, "li": 9341, "293": 11855, "863": 12874, "##怵": 15656, "feb": 9694, "318": 10189, "##偵": 14037, "##宗": 15191, "##悦": 15700, "##痒": 17630, "##捶": 16005, "##郅": 20002, "嘚": 1657, "極": 3513, "篙": 5067, "耶": 5456, "##慕": 15767, "華": 5836, "##皴": 17709, "##in": 8277, "macd": 10851, "搓": 3013, "##锯": 20299, "##際": 20453, "槤": 3548, "谢": 6468, "##wen": 10861, "hiv": 11141, "##滕": 17058, "諏": 6314, "ŋ": 196, "##rl": 9923, "##飛": 20663, "##be": 8765, "宰": 2153, "##侃": 13944, "##邪": 19989, "##戏": 15824, "##朋": 16358, "##re": 8358, "懸": 2756, "＿": 8049, "##tors": 13270, "##樊": 16614, "雖": 7426, "##岔": 15321, "##ょ": 13677, "猪": 4343, "辻": 6806, "##涔": 16929, "##釘": 20091, "揮": 3000, "凍": 1120, "枯": 3369, "akb48": 10521, "998": 13180, "##綾": 18270, "adobe": 8864, "##筠": 18092, "fish": 11676, "##醞": 20069, "隣": 7399, "##槽": 16610, "過": 6882, "##300": 10097, "##嘮": 14725, "##酌": 20037, "##濁": 17138, "2mm": 12287, "139": 9081, "鼻": 7965, "##撷": 16126, "##痙": 17634, "##瘢": 17662, "##窍": 18021, "03": 8140, "镕": 7258, "taylor": 11053, "welcome": 12759, "1884": 13007, "rcep": 12361, "##乌": 13780, "##祉": 17915, "##蹊": 19747, "铡": 7201, "protected": 9562, "1893": 12927, "##ア": 9788, "##type": 11085, "酮": 6993, "##班": 17465, "爸": 4268, "##ウ": 12891, "紅": 5148, "喱": 1608, "##碰": 17878, "7500": 11271, "ァ": 588, "213": 10431, "##坳": 14849, "問": 1558, "##碟": 17874, "##兴": 14126, "梧": 3458, "bd": 8633, "vr": 8260, "狠": 4321, "rmk": 13091, "##冪": 14156, "萁": 5841, "##urg": 13143, "##勐": 14295, "谐": 6455, "霞": 7459, "炼": 4159, "吠": 1413, "1958": 8955, "漬": 4036, "关": 1068, "##涂": 16921, "##莞": 18863, "json": 12249, "鐵": 7136, "##挎": 15960, "##死": 16704, "##綏": 18250, "##ᵍ": 13491, "許": 6258, "##at": 8488, "##馳": 20739, "瞒": 4737, "##悚": 15696, "##猙": 17394, "##祠": 17927, "転": 6728, "r8": 10187, "benz": 13065, "楠": 3507, "fm": 9079, "叉": 1349, "##诚": 19468, "##朵": 16378, "##净": 14169, "##達": 19945, "##莪": 18867, "rgb": 11189, "##剣": 14250, "數": 3149, "纰": 5284, "roger": 13033, "##锋": 20283, "ι": 217, "##ht": 12160, "##hl": 11831, "鄉": 6965, "##、": 13645, "m1": 10211, "salvatore": 10078, "##訊": 19301, "訴": 6260, "ˢ": 209, "##ﾟ": 21121, "络": 5317, "示": 4850, "鐸": 7137, "蓁": 5897, "哽": 1531, "##吐": 14459, "##誓": 19349, "##祐": 17917, "級": 5159, "gpu": 9483, "呐": 1443, "##酒": 20040, "標": 3560, "贓": 6561, "release": 13017, "##jun": 12915, "##囑": 14777, "##巩": 15400, "##錶": 20157, "鄭": 6972, "##］": 21091, "##85": 9169, "ve": 12810, "##ning": 9535, "##吹": 14487, "雑": 7423, "##购": 19636, "詡": 6272, "##页": 20609, "##桅": 16483, "申": 4509, "壑": 1885, "環": 4472, "鬆": 7777, "##声": 14955, "1921": 10033, "##ⅴ": 13523, "hi": 8913, "##妥": 15037, "##厥": 14392, "钱": 7178, "沣": 3768, "eos": 10434, "object": 11336, "bad": 12139, "眺": 4705, "##靛": 20533, "##極": 16570, "##幾": 15464, "##潇": 17102, "効": 1230, "呱": 1454, "##lee": 12448, "##轉": 19809, "##dia": 9360, "倖": 950, "鎮": 7120, "經": 5195, "073": 13021, "純": 5155, "ads": 12521, "##甸": 17569, "坑": 1778, "锰": 7243, "##枚": 16418, "org": 8448, "遺": 6909, "##绷": 18395, "##袅": 19205, "铂": 7189, "cos": 10141, "##訳": 19316, "brandt": 12855, "##勸": 14310, "##辘": 19844, "识": 6399, "##訪": 19313, "##胺": 18599, "<T>": 105, "##la": 8461, "拭": 2887, "χ": 230, "##櫸": 16663, "脉": 5549, "##判": 14218, "##初": 14216, "╳": 448, "##│": 11958, "崇": 2300, "235": 8593, "##lic": 11809, "##๑": 13451, "##噪": 14749, "##堰": 14897, "竅": 4986, "##>": 13336, "##綫": 18259, "##蛐": 19087, "##觅": 19284, "徨": 2540, "##糗": 18189, "殭": 3663, "gps": 8434, "##trix": 12749, "##驾": 20787, "谴": 6482, "192": 9319, "##啫": 14628, "##圧": 14818, "##藹": 19032, "##昂": 16260, "##惜": 15724, "##炅": 17196, "##枕": 16416, "哦": 1521, "遭": 6901, "hall": 11049, "##嘯": 14726, "##鸚": 20936, "唯": 1546, "click": 11682, "##嘴": 14730, "##東": 16403, "##砥": 17840, "this": 8554, "##莒": 18859, "б": 234, "##央": 14982, "据": 2945, "搅": 3009, "##◠": 13616, "##检": 16523, "##坚": 14837, "##樺": 16630, "★★★★★": 10349, "##枳": 16429, "124": 9377, "##则": 14213, "瀧": 4113, "##杜": 16393, "庾": 2437, "##港": 17006, "俭": 933, "・": 644, "##潋": 17103, "12": 8110, "##潺": 17121, "##腦": 18639, "##鞅": 20546, "09": 8141, "[unused50]": 50, "因": 1728, "聒": 5467, "dcs": 12418, "##弄": 15519, "纾": 5295, "鬱": 7786, "羈": 5398, "discovery": 12748, "##競": 18057, "##寨": 15238, "ver": 12513, "##茫": 18812, "六": 1063, "##裹": 19238, "ge": 10234, "える": 10382, "##套": 15004, "##常": 15439, "##紛": 18217, "##籠": 18153, "怎": 2582, "弛": 2474, "舒": 5653, "莆": 5798, "話": 6282, "##ect": 10862, "##ath": 11486, "dx": 13240, "警": 6356, "##制": 14226, "aug": 9663, "##満": 17027, "##酢": 20044, "##痊": 17628, "##з": 13408, "驶": 7724, "dac": 12913, "402": 12040, "隕": 7393, "差": 2345, "筏": 5027, "##嗜": 14685, "儷": 1034, "##豆": 19543, "##りの": 12407, "驟": 7713, "蜥": 6060, "flickr": 11470, "##唱": 14605, "漣": 4032, "##札": 16373, "秘": 4908, "zh": 9998, "##亘": 13817, "暇": 3259, "垛": 1801, "沾": 3783, "##学": 15167, "##曳": 16347, "##蠍": 19162, "姥": 2005, "##戳": 15841, "##頃": 20573, "331": 11879, "##η": 13385, "菇": 5823, "1a": 11942, "##屌": 15296, "驳": 7722, "##勾": 14313, "[unused63]": 63, "center": 9469, "##驢": 20771, "嬴": 2088, "##璟": 17526, "2b": 10740, "##劫": 14280, "pacific": 12625, "须": 7557, "c4": 13209, "##古": 14424, "佞": 870, "171": 9919, "##鏟": 20184, "##针": 20208, "塢": 1854, "飢": 7609, "馳": 7682, "##伝": 13891, "##捅": 15984, "唬": 1544, "##隊": 20443, "##屁": 15287, "п": 247, "ホ": 623, "佈": 854, "##沮": 16832, "撂": 3047, "##湍": 17015, "##↔": 13524, "耦": 5453, "惩": 2674, "blogspot": 10437, "ᄂ": 290, "样": 3416, "back": 10017, "拥": 2881, "戌": 2764, "偻": 983, "wed": 8585, "##up": 8838, "history": 9939, "##模": 16620, "##血": 19174, "赌": 6603, "怦": 2594, "與": 5645, "##labels": 10636, "1350": 12809, "##潼": 17122, "##稷": 17995, "x6": 12121, "湄": 3956, "##妨": 15038, "##行": 19178, "##跌": 19706, "鯽": 7811, "gif": 9047, "##辰": 19858, "##淞": 16965, "懵": 2753, "dream": 10252, "##xxx": 12812, "##rect": 13075, "射": 2198, "##俭": 13990, "[unused84]": 84, "##▅": 13599, "mon": 8556, "c1": 10905, "nick": 11243, "蟆": 6093, "##lone": 12519, "longchamp": 9003, "稱": 4935, "梳": 3463, "谥": 6471, "魅": 7791, "##扯": 15873, "##稳": 17994, "##盞": 17729, "##✔": 13633, "##泗": 16849, "ᅬ": 313, "枕": 3359, "甭": 4504, "##蹇": 19744, "玥": 4380, "##捧": 15999, "撮": 3065, "券": 1171, "珙": 4401, "##掇": 16012, "##桠": 16494, "暐": 3263, "逍": 6850, "##淙": 16963, "圻": 1768, "##喊": 14648, "##≫": 13550, "##痧": 17641, "pen": 12637, "##謄": 19391, "##驮": 20775, "##豌": 19548, "##−": 13529, "##譎": 19407, "##獼": 17426, "from": 8670, "##น": 13444, "##铣": 20260, "旖": 3185, "##預": 20578, "者": 5442, "硅": 4795, "##檬": 16654, "遑": 6885, "氣": 3706, "jack": 9850, "嘔": 1653, "##乒": 13785, "##⑦": 13562, "烨": 4174, "##畸": 17592, "##孀": 15149, "##韵": 20567, "诟": 6415, "720p": 9591, "##颖": 20634, "锉": 7225, "箋": 5044, "麼": 7938, "##ana": 9335, "string": 11508, "images": 12804, "##³": 13354, "##神": 17925, "##窖": 18026, "##耷": 18514, "##赳": 19682, "gis": 12892, "搵": 3023, "宙": 2136, "stage": 12731, "##back": 10102, "##bt": 10161, "##ka": 8693, "##400": 10765, "劃": 1205, "##sl": 11066, "刻": 1174, "屉": 2236, "邹": 6941, "##atic": 11080, "but": 10288, "##岐": 15319, "##皎": 17700, "##价": 13874, "##與": 18702, "##嶄": 15380, "##錚": 20147, "穗": 4950, "##丁": 13729, "给": 5314, "##复": 14965, "##鎗": 20173, "癌": 4617, "穌": 4947, "##农": 14150, "##瓣": 17537, "##菅": 18879, "濘": 4087, "##aft": 12106, "##クセス": 13311, "②": 406, "无": 3187, "綱": 5205, "跡": 6657, "檗": 3594, "art": 9143, "氐": 3695, "鈴": 7051, "##om": 8810, "獾": 4370, "down": 10243, "s1": 10640, "##伺": 13905, "##宙": 15193, "這": 6857, "鄂": 6964, "##德": 15605, "疽": 4564, "##.": 13330, "lock": 9189, "##殊": 16711, "胭": 5534, "life": 8562, "hot": 9286, "う": 537, "貨": 6515, "##亿": 13840, "##特": 17351, "##狽": 17389, "##筝": 18091, "lenovo": 13031, "##累": 18225, "俐": 919, "##茵": 18819, "##｜": 9815, "##讨": 19431, "1965": 9141, "##遠": 19952, "##鏖": 20180, "##魚": 20854, "##鳗": 20906, "◢": 477, "寸": 2189, "裴": 6179, "xyz": 11266, "咗": 1477, "##佐": 13915, "帯": 2377, "刊": 1149, "##bus": 10151, "斤": 3165, "1905": 10196, "##ec": 9587, "##熾": 17289, "boy": 10447, "##くたさい": 9175, "##摯": 16098, "##芯": 18765, "over": 10047, "##のお": 10217, "的": 4638, "j": 152, "蝙": 6073, "翹": 5435, "##随": 20447, "##卷": 14375, "##帚": 15424, "贯": 6581, "##庞": 15482, "##撮": 16122, "oops": 11260, "##莎": 18858, "##囊": 14775, "##养": 14132, "##水": 16774, "##韓": 20559, "珉": 4395, "胍": 5521, "[unused81]": 81, "##▇": 13600, "幕": 2391, "用": 4500, "##ナ": 10714, "比": 3683, "蔬": 5922, "##龅": 21035, "揃": 2984, "##暫": 16328, "##読": 19362, "##ミ": 10688, "gm": 12277, "厥": 1335, "賊": 6538, "##慑": 15766, "1882": 13273, "薄": 5946, "458": 12562, "##薄": 19003, "##鉅": 20113, "fly": 13010, "蛐": 6030, "##wi": 10958, "##鹿": 20979, "##胛": 18582, "满": 4007, "疱": 4557, "rf": 10586, "##浜": 16910, "遜": 6893, "##糰": 18198, "瀟": 4112, "##斥": 16223, "薩": 5958, "逗": 6856, "##膛": 18662, "##土": 14816, "##nic": 12467, "镇": 7252, "曇": 3279, "##扁": 15850, "祐": 4860, "td": 9287, "诘": 6409, "贪": 6576, "bridge": 11784, "##骞": 20806, "##蠕": 19164, "脑": 5554, "##eting": 13216, "瘩": 4609, "篮": 5074, "ae": 11978, "漆": 4024, "##濬": 17151, "艾": 5687, "园": 1736, "钺": 7182, "##呷": 14515, "皺": 4653, "403": 12058, "韦": 7504, "##燭": 17306, "ｽ": 8091, "吴": 1426, "餾": 7634, "营": 5852, "##排": 16018, "聘": 5470, "##畴": 17590, "##豪": 19555, "##綴": 18264, "箭": 5055, "｡": 8081, "##鰓": 20870, "##报": 15902, "夭": 1924, "療": 4615, "##步": 16692, "##10": 8311, "##ack": 11360, "##鱸": 20880, "##れている": 11856, "##协": 14348, "##潧": 17115, "jcb": 10557, "負": 6511, "hill": 10562, "蓬": 5908, "驭": 7717, "##2015": 8600, "##desk": 13039, "店": 2421, "о": 246, "枣": 3365, "滚": 4003, "羊": 5399, "3d": 8219, "鎏": 7113, "details": 13227, "袍": 6151, "##坤": 14844, "##眞": 17752, "##绎": 18363, "balance": 11606, "dear": 11694, "##mini": 12391, "##霎": 20510, "##靜": 20534, "ぁ": 533, "##侈": 13947, "褪": 6192, "##遐": 19941, "france": 11653, "很": 2523, "##ت": 13430, "繳": 5260, "##魇": 20849, "好": 1962, "##婕": 15098, "として": 10147, "賜": 6541, "錶": 7100, "临": 707, "##資": 19593, "##焘": 17245, "錠": 7091, "擢": 3091, "琇": 4416, "圳": 1766, "##篑": 18122, "咎": 1470, "訳": 6259, "洹": 3832, "淀": 3895, "治": 3780, "応": 2565, "凪": 1130, "凛": 1123, "7": 128, "孟": 2106, "都": 6963, "##ji": 9343, "櫃": 3602, "晶": 3253, "##ral": 10482, "e7": 12888, "##唾": 14609, "##奬": 15012, "##嵐": 15374, "##恃": 15660, "##氰": 16772, "##ins": 9556, "##郝": 20007, "111": 8932, "筱": 5036, "##仙": 13860, "##莆": 18855, "pv": 10415, "##怒": 15641, "real": 10153, "##♡": 13627, "##懿": 15817, "eia": 11981, "ｄ": 8054, "しかし": 12906, "468": 12944, "##増": 14925, "##ever": 11531, "emi": 13104, "##tory": 12608, "##祛": 17922, "448": 13078, "缎": 5352, "##墀": 14918, "##淄": 16953, "##摳": 16099, "pose": 11474, "##统": 18377, "噱": 1694, "##末": 16371, "##鄉": 20022, "恸": 2627, "sp": 9716, "吟": 1412, "袖": 6153, "##咦": 14541, "##能": 18600, "钓": 7157, "##璐": 17523, "960": 10450, "##漾": 17099, "##羞": 18461, "lte": 8987, "岳": 2277, "##あります": 10700, "##傑": 14046, "篑": 5065, "##潆": 17101, "##辫": 19854, "拇": 2859, "結": 5178, "##粤": 18170, "ofweek": 10140, "曬": 3287, "##ome": 9893, "##苞": 18788, "##霧": 20517, "sbl": 12250, "柿": 3398, "##磲": 17896, "素": 5162, "蠡": 6110, "007": 9722, "jing": 13207, "##凪": 14187, "##繞": 18311, "臆": 5621, "##shi": 9655, "##擼": 16157, "##燊": 17295, "product": 11691, "穷": 4956, "##嵇": 15370, "be2": 10276, "##働": 14064, "x1": 9566, "##吓": 14462, "##笞": 18071, "345": 11434, "##筑": 18086, "蓄": 5898, "##のは": 10093, "eb": 10979, "ikea": 10513, "##ism": 10627, "##單": 14663, "##嵌": 15373, "##滲": 17073, "##覆": 19265, "庇": 2413, "##鞣": 20553, "闆": 7293, "泸": 3810, "##麺": 20993, "菡": 5834, "380": 9406, "##啦": 14625, "##焦": 17250, "##痺": 17649, "##６": 9234, "锅": 7222, "##揆": 16043, "reading": 10303, "渦": 3945, "咕": 1475, "##皈": 17698, "##蔘": 18973, "啱": 1575, "魍": 7793, "饨": 7646, "lv": 8289, "沮": 3775, "ч": 255, "娱": 2031, "猝": 4340, "##晖": 16296, "鱔": 7820, "##汨": 16797, "胳": 5538, "臘": 5626, "雹": 7441, "##撈": 16108, "##穆": 18003, "##饰": 20709, "##ek": 9534, "焰": 4195, "##讯": 19437, "##晾": 16313, "垚": 1800, "##舔": 18711, "攙": 3107, "##菏": 18884, "##隽": 20466, "焼": 4198, "2025": 8950, "##殘": 16716, "253": 10221, "灣": 4124, "肇": 5488, "珊": 4396, "##︿": 21052, "1500": 8443, "##巾": 15410, "##ey": 8603, "##悉": 15691, "绝": 5318, "##嵊": 15371, "##俾": 13997, "##贍": 19616, "拎": 2865, "##ي": 13440, "##ata": 10449, "橢": 3584, "##ew": 10795, "醬": 7016, "ォ": 596, "挝": 2909, "s6": 10470, "奶": 1959, "##莿": 18876, "##）": 21078, "ｔ": 8070, "##養": 20678, "蚣": 6017, "暹": 3276, "櫛": 3604, "焉": 4183, "6m": 12485, "##rame": 13185, "##荏": 18829, "挠": 2912, "缪": 5368, "##颢": 20644, "36": 8216, "nov": 9698, "嫁": 2063, "##⑴": 13566, "##ica": 9156, "##娓": 15079, "##扱": 15875, "柞": 3386, "##痢": 17638, "##礎": 17900, "##箔": 18105, "##诠": 19473, "佬": 878, "叨": 1370, "##tions": 9652, "##詭": 19336, "##po": 9401, "##瞥": 17799, "般": 5663, "##闇": 20351, "##顫": 20605, "##饬": 20705, "##鲨": 20892, "##寺": 15248, "##皖": 17703, "##ก": 13442, "殁": 3649, "祜": 4866, "##map": 10909, "##款": 16678, "仨": 810, "san": 9542, "赝": 6613, "511": 12677, "##ŋ": 13366, "##湳": 17024, "囂": 1716, "板": 3352, "##虫": 19058, "嗰": 1639, "額": 7540, "嬉": 2080, "##ㄧ": 13722, "##炖": 17203, "濟": 4089, "＆": 8018, "⁄": 351, "##匮": 14330, "。": 511, "##饱": 20710, "710": 12415, "##犍": 17358, "蓟": 5906, "##韆": 20556, "##鬚": 20837, "##鴿": 20920, "yam": 8107, "塘": 1851, "##瘋": 17654, "静": 7474, "##筋": 18082, "喙": 1597, "昆": 3204, "鴿": 7863, "there": 11136, "##cation": 11424, "##如": 15020, "##潴": 17119, "##艳": 18740, "##锲": 20301, "##刨": 14220, "幣": 2395, "metal": 13259, "ˋ▽ˊ": 12416, "桨": 3444, "眦": 4698, "翻": 5436, "##鑊": 20197, "镣": 7263, "##镯": 20322, "##隣": 20456, "##颍": 20629, "訶": 6261, "[unused75]": 75, ":": 131, "##敦": 16199, "豇": 6487, "##何": 13919, "##昌": 16265, "##骈": 20795, "この": 9134, "河": 3777, "ins": 12323, "##ement": 11946, "蔻": 5927, "辘": 6787, "##冇": 14138, "蒐": 5883, "##25": 8743, "##hu": 9670, "##前": 14241, "##堺": 14901, "##络": 18374, "##胄": 18575, "##葭": 18931, "##陞": 20422, "photo": 9020, "wei": 11875, "##珂": 17449, "##傅": 14044, "##徒": 15587, "ck": 11623, "##酐": 20039, "徼": 2550, "綾": 5213, "international": 9001, "ok": 8270, "##欣": 16672, "3a": 10667, "##锄": 20278, "##鞦": 20554, "ace": 12192, "梵": 3464, "[unused70]": 70, "蒜": 5886, "##三": 13733, "##浙": 16908, "##hd": 9304, "矫": 4763, "紜": 5161, "##刹": 14229, "縣": 5238, "迄": 6812, "惹": 2685, "##洛": 16878, "嘮": 1668, "淄": 3896, "嫖": 2069, "rose": 9497, "qqmei": 12011, "591": 9512, "##柜": 16442, "##澧": 17133, "##煉": 17257, "背": 5520, "##fl": 11690, "##著": 18922, "##邦": 19987, "炫": 4149, "##姉": 15048, "藓": 5968, "锥": 7238, "##岛": 15327, "fire": 11229, "##庖": 15477, "获": 5815, "##琉": 17474, "吁": 1390, "brian": 11754, "動": 1240, "ep": 10676, "##妍": 15027, "銃": 7066, "##✕": 13634, "##蹤": 19754, "##鑰": 20202, "##rite": 11366, "〇": 514, "##定": 15194, "##镉": 20310, "##｝": 21102, "吏": 1401, "н": 245, "##✦": 13636, "##荆": 18826, "##鲶": 20896, "熬": 4228, "衝": 6128, "##ms": 8884, "##穂": 18002, "艮": 5678, "##澜": 17130, "##鄰": 20030, "袱": 6160, "右": 1381, "##咎": 14527, "沢": 3767, "されています": 9604, "栉": 3405, "##钣": 20225, "裁": 6161, "##潭": 17116, "舛": 5657, "##ma": 8404, "##陣": 20426, "洁": 3815, "ccd": 12882, "##囫": 14792, "##编": 18413, "##いた": 10526, "##廝": 15504, "##嘲": 14729, "☀": 479, "购": 6579, "268": 10729, "##bility": 13254, "##﹖": 21062, "骆": 7736, "灶": 4131, "讞": 6368, "##曦": 16343, "疡": 4550, "##辞": 19848, "讧": 6373, "炖": 4146, "朗": 3306, "潧": 4058, "##凸": 14194, "##棄": 16525, "##腑": 18634, "##xp": 11379, "嗖": 1626, "霰": 7462, "##瑩": 17510, "懊": 2747, "##菱": 18894, "##泛": 16850, "喇": 1589, "榛": 3527, "##緒": 18276, "##貯": 19577, "栄": 3401, "蟹": 6101, "hop": 10931, "##欽": 16677, "跤": 6658, "##瑣": 17508, "做": 976, "螢": 6086, "##超": 19688, "##铝": 20256, "##邰": 19993, "鯖": 7807, "9985": 12839, "an": 9064, "抗": 2834, "##扎": 15856, "骄": 7734, "枳": 3372, "辙": 6788, "##齡": 21029, "##§": 13351, "##癞": 17678, "##巫": 15401, "吕": 1406, "##╭": 13591, "##膿": 18674, "##殯": 16721, "闌": 7296, "monday": 12069, "詳": 6284, "##遅": 19934, "诠": 6416, "##tc": 10149, "驷": 7725, "训": 6378, "##滾": 17077, "##貸": 19583, "##郫": 20014, "明": 3209, "##帘": 15423, "##榨": 16586, "瑄": 4440, "whatsapp": 10250, "##砷": 17846, "##痨": 17642, "##警": 19413, "##僅": 14063, "幅": 2388, "掀": 2952, "趕": 6634, "教": 3136, "##im": 9370, "##挹": 15979, "##峽": 15353, "##耍": 18503, "##懸": 15813, "atom": 8941, "##睇": 17767, "階": 7389, "憔": 2732, "暱": 3273, "浴": 3861, "菀": 5820, "74": 8473, "汩": 3741, "##ml": 8477, "pack": 12736, "##栀": 16456, "なとの": 10435, "返": 6819, "##late": 11523, "﹖": 8005, "獅": 4353, "##圩": 14820, "##溪": 17040, "##洩": 16881, "漳": 4040, "##培": 14881, "##nce": 9056, "鲫": 7836, "卉": 1287, "逞": 6861, "bell": 9993, "##饗": 20700, "吮": 1422, "##65": 9331, "365": 8728, "メーカー": 12052, "醚": 7009, "357": 12494, "wear": 12679, "##扉": 15853, "格": 3419, "vdf": 13261, "##鍥": 20162, "##钨": 20230, "荸": 5793, "costco": 10742, "##ロク": 11416, "涛": 3875, "走": 6624, "てす": 8296, "いします": 10342, "2400": 9851, "畿": 4537, "##审": 15201, "##歉": 16681, "##躏": 19771, "##汇": 16783, "show": 8658, "哆": 1504, "编": 5356, "##夫": 14980, "##甜": 17551, "##乞": 13794, "拗": 2871, "軽": 6731, "大": 1920, "骡": 7751, "data": 9000, "guide": 11724, "謔": 6338, "##惶": 15741, "乳": 745, "岚": 2269, "##戴": 15842, "##盂": 17712, "偈": 970, "##领": 20623, "縝": 5237, "银": 7213, "##頸": 20591, "96": 8378, "架": 3373, "tomtom": 12196, "##习": 13796, "##作": 13925, "ca": 8850, "ka": 11306, "珺": 4411, "##年": 15456, "啼": 1582, "詰": 6281, "##期": 16366, "锑": 7230, "肌": 5491, "##倡": 14013, "##迭": 19891, "≪": 398, "丶": 708, "哑": 1514, "kanshu": 13236, "屬": 2253, "##寿": 15252, "麗": 7927, "dr": 8647, "组": 5299, "##擲": 16153, "m": 155, "肪": 5505, "##墊": 14922, "##敖": 16190, "笨": 5017, "##娩": 15087, "##後": 15584, "##築": 18121, "ᅯ": 316, "##鹽": 20978, "##劃": 14262, "##戾": 15847, "earth": 11409, "麽": 7939, "step1": 8905, "imsean": 12087, "##蛊": 19084, "##斫": 16226, "117": 9149, "##練": 18287, "半": 1288, "##糧": 18195, "抨": 2846, "##兀": 14094, "落": 5862, "##v": 8225, "alpha": 10763, "##礁": 17899, "##剎": 14242, "[unused13]": 13, "##吕": 14463, "##牲": 17348, "##禛": 17944, "##閹": 20347, "泓": 3790, "cv": 10718, "uc": 9955, "cream": 11494, "##‖": 13496, "lumia": 11506, "beautiful": 13106, "##少": 15265, "延": 2454, "well": 12010, "痫": 4587, "en": 9447, "studio": 8318, "碌": 4808, "乖": 731, "からお": 9669, "##des": 11211, "##ㄌ": 13710, "##請": 19370, "single": 12148, "喎": 1593, "##脩": 18618, "##茨": 18811, "祕": 4861, "##log": 11458, "迢": 6827, "紉": 5149, "os": 8721, "##哂": 14559, "express": 9865, "##耄": 18498, "##胆": 18576, "##語": 19352, "##跚": 19710, "胎": 5522, "##ary": 9277, "磬": 4837, "self": 12178, "##杭": 16400, "羽": 5417, "蠔": 6106, "##孔": 15153, "##耽": 18517, "##饒": 20698, "64gb": 11432, "##袜": 19211, "##荼": 18852, "褚": 6190, "藤": 5972, "##las": 10113, "##骡": 20808, "裨": 6176, "凡": 1127, "##こさいます": 10286, "翅": 5420, "##night": 12734, "勺": 1254, "##いるのて": 11443, "##颞": 20641, "##ф": 13419, "##ません": 9035, "哂": 1502, "開": 7274, "璜": 4467, "adc": 10723, "##牽": 17353, "##颜": 20639, "##靥": 20539, "埗": 1817, "焦": 4193, "##ration": 11103, "痢": 4581, "##诽": 19496, "挹": 2922, "##悸": 15711, "##靄": 20526, "胥": 5531, "誉": 6289, "鄢": 6970, "dt": 13260, "##槌": 16597, "xxx": 8790, "##癣": 17681, "##籃": 18148, "##餘": 20683, "额": 7583, "##lon": 10146, "▲topapr": 10162, "却": 1316, "渠": 3940, "##と": 8322, "##鳞": 20908, "夢": 1918, "帥": 2371, "禎": 4885, "辯": 6800, "てすか": 11244, "##滥": 17067, "築": 5064, "##迟": 19883, "裾": 6183, "疤": 4552, "黑": 7946, "玻": 4390, "怨": 2596, "##cia": 12382, "##冰": 14159, "##婧": 15102, "淆": 3898, "##醛": 20067, "##╯": 13593, "潺": 4064, "##ping": 10755, "啥": 1567, "##構": 16596, "ち": 552, "栅": 3402, "##輾": 19804, "##ic": 8317, "##註": 19320, "濁": 4081, "##χ": 13400, "##32": 8709, "##〉": 13651, "例": 891, "##唔": 14597, "嫡": 2072, "##抛": 15894, "墳": 1877, "2007": 8201, "碩": 4820, "索": 5164, "葯": 5875, "牺": 4295, "##１": 8939, "〝": 531, "玛": 4377, "a2": 10301, "##堯": 14896, "##琍": 17476, "##袋": 19207, "##逮": 19923, "nb": 9254, "諮": 6324, "tina": 12925, "##跟": 19713, "##$": 13320, "##http": 11116, "##鐮": 20190, "##癜": 17677, "##rap": 11893, "惡": 2670, "maker": 11389, "##餛": 20685, "鲈": 7827, "education": 12727, "movie": 11099, "##<": 13334, "##聽": 18538, "潞": 4053, "##_": 13343, "劏": 1211, "2900": 13044, "##home": 10479, "##谨": 19531, "詛": 6269, "鮮": 7804, "熙": 4224, "曝": 3284, "もみつかっちゃうかも": 12155, "##汗": 16788, "捧": 2942, "##玳": 17444, "##酰": 20052, "##踌": 19728, "size": 9571, "3300": 11543, "纫": 5280, "##ton": 8626, "##70": 8740, "##命": 14519, "揩": 2997, "輛": 6739, "械": 3462, "##hk": 11054, "荳": 5791, "窍": 4964, "nownews": 11123, "men": 11305, "姓": 1998, "伎": 825, "##晚": 16298, "##瓯": 17541, "？": 8043, "##〞": 13667, "##芸": 18769, "##莠": 18864, "##铂": 20246, "##字": 15156, "##颡": 20643, "##en": 8329, "va": 12949, "職": 5480, "##py": 11610, "##報": 14898, "壺": 1903, "肓": 5493, "player": 9075, "础": 4794, "meiki": 9872, "apt": 13205, "great": 10512, "##匹": 14333, "鬍": 7778, "身": 6716, "##孝": 15162, "##禅": 17940, "##袭": 19216, "##昉": 16263, "##键": 20298, "诗": 6408, "##ク": 9625, "##ph": 12465, "##塭": 14915, "##彈": 15549, "椰": 3496, "##网": 18438, "##篆": 18119, "鏤": 7130, "##۩": 13441, "≡": 393, "顷": 7554, "##搗": 16073, "##殆": 16708, "##鈉": 20099, "貽": 6529, "##鳥": 20909, "[unused47]": 47, "意": 2692, "##なく": 10395, "忤": 2568, "##专": 13740, "##紳": 18227, "##･": 21107, "钒": 7156, "##mm": 8278, "##廚": 15503, "##ncy": 10518, "齣": 7974, "##韧": 20562, "##妙": 15032, "厳": 1342, "▋": 455, "##lls": 11139, "##cr": 13129, "##嚼": 14772, "##磚": 17891, "錘": 7089, "william": 9979, "##鳌": 20902, "##ⓒ": 13575, "器": 1690, "##our": 9832, "糾": 5144, "審": 2182, "赧": 6621, "##缪": 18425, "镳": 7267, "耸": 5458, "dj": 9135, "輯": 6744, "##es": 8333, "##鉑": 20115, "芹": 5713, "娣": 2028, "莿": 5819, "户": 2787, "逾": 6874, "##sd": 10117, "218": 10224, "糟": 5136, "897": 8747, "##gate": 11695, "##丫": 13760, "##院": 20425, "掩": 2973, "诺": 6437, "##lli": 13169, "汹": 3747, "##钻": 20240, "##纸": 18348, "免": 1048, "颔": 7576, "拷": 2893, "烹": 4181, "##尘": 15269, "##乓": 13786, "隨": 7401, "##蕪": 18997, "##ke": 8537, "雒": 7424, "##踟": 19733, "远": 6823, "贛": 6563, "繕": 5252, "ctrl": 8947, "##彷": 15570, "├": 436, "##匝": 14325, "填": 1856, "菌": 5826, "##day": 8758, "##泮": 16860, "##論": 19373, "kindle": 9810, "##so": 9974, "messenger": 11892, "##急": 15650, "頫": 7530, "[UNK]": 100, "排": 2961, "羚": 5403, "##ia": 8321, "礙": 4844, "3100": 12100, "area": 13224, "640": 11410, "card": 10674, "##臓": 18682, "##黴": 21014, "3000": 8283, "##吏": 14458, "##ow": 9024, "##回": 14783, "鱗": 7821, "##昴": 16280, "##悱": 15706, "##诟": 19472, "という": 10741, "##nda": 12715, "昴": 3223, "##擅": 16135, "##肋": 18547, "cpa": 11963, "##stack": 12511, "jay": 12541, "015": 13220, "蝴": 6078, "##丑": 13739, "##爍": 17313, "琍": 4419, "膾": 5616, "宅": 2125, "##閱": 20345, "##丰": 13762, "溜": 3977, "##pm": 9280, "dan": 11404, "觸": 6240, "剣": 1193, "馄": 7665, "##叟": 14419, "##ros": 12409, "牽": 4296, "##秧": 17970, "屏": 2242, "鯰": 7810, "熔": 4223, "擷": 3098, "##褔": 19246, "##轰": 19821, "勃": 1234, "镐": 7256, "##匱": 14332, "802": 10128, "##bon": 12229, "##龈": 21036, "[unused38]": 38, "單": 1606, "##л": 13410, "##ju": 10904, "family": 10072, "皓": 4645, "480": 9482, "##pi": 9664, "弃": 2461, "拜": 2876, "##ash": 9889, "tcs": 10363, "##fet": 12089, "##al": 8315, "##万": 13731, "##啃": 14610, "##觸": 19297, "##资": 19655, "迩": 6831, "##跩": 19717, "訛": 6251, "##麸": 20992, "擁": 3075, "沽": 3782, "阐": 7331, "1997": 8387, "cad": 8645, "度": 2428, "##蛇": 19083, "##谍": 19509, "##field": 10901, "fx": 12611, "##mhz": 9932, "慣": 2715, "骤": 7752, "賬": 6550, "##して": 9379, "cry": 10485, "921": 12253, "##搵": 16080, "类": 5102, "夹": 1931, "瑟": 4449, "颇": 7567, "##eo": 10232, "##涅": 16922, "##谎": 19510, "##樞": 16618, "►": 467, "##翟": 18484, "##韩": 20563, "##～1": 12427, "演": 4028, "gp": 13228, "h6": 12235, "鉑": 7058, "0755": 10960, "##喫": 14661, "##妄": 15022, "##滦": 17068, "ya": 12066, "✨": 501, "蹶": 6704, "##nix": 12955, "篝": 5068, "##杰": 16402, "##览": 19286, "##难": 20467, "##骂": 20790, "愜": 2696, "噹": 1698, "##ney": 10761, "窪": 4980, "##檐": 16649, "屑": 2244, "##con": 10281, "##級": 18216, "##劇": 14263, "阪": 7341, "##∀": 13528, "迫": 6833, "姪": 2008, "实": 2141, "璇": 4462, "95": 8287, "##底": 15476, "##黃": 20998, "##ance": 9966, "##溏": 17031, "var": 10433, "jobs": 13103, "bin": 11702, "##倩": 14016, "##闕": 20356, "1948": 9130, "set": 9738, "##2c": 11935, "してくたさい": 10650, "##効": 14287, "##譴": 19418, "覃": 6207, "煉": 4200, "nikon": 11391, "##业": 13746, "堃": 1829, "##広": 15467, "##惫": 15732, "##椁": 16544, "ᅭ": 314, "##hone": 10271, "创": 1158, "1200": 8552, "##卟": 14360, "喧": 1602, "##ction": 9116, "##┃": 13579, "imax": 11214, "诡": 6417, "##等": 18080, "帆": 2359, "噬": 1693, "饷": 7658, "璀": 4459, "102": 8667, "##砰": 17843, "涩": 3886, "幡": 2393, "##井": 13816, "##嫦": 15131, "##空": 18015, "##う": 8981, "##窄": 18019, "##螂": 19139, "該": 6283, "##檳": 16656, "绩": 5327, "honey": 13299, "##炔": 17201, "囡": 1729, "##蔼": 18985, "##﹁": 21053, "燄": 4235, "ef": 9783, "ha": 11643, "##挂": 15956, "挖": 2905, "檎": 3591, "award": 11796, "james": 8923, "west": 8520, "##qq": 10624, "蛾": 6042, "婵": 2049, "诵": 6433, "##別": 14219, "踉": 6669, "＄": 8016, "##丘": 13744, "ㄏ": 655, "##聖": 18526, "##燻": 17309, "飛": 7606, "咏": 1471, "韶": 7511, "le": 8983, "弄": 2462, "carol": 9196, "327": 12094, "lost": 12593, "[unused78]": 78, "##て": 8312, "123456": 10644, "##bay": 13200, "りは": 13073, "蠍": 6105, "##八": 14118, "##坊": 14830, "炅": 4139, "荐": 5773, "薨": 5957, "[unused11]": 11, "##怨": 15653, "##手": 15854, "##撚": 16114, "701": 12656, "##暄": 16315, "##芝": 18755, "##驊": 20763, "₃": 357, "gucci": 10258, "##灣": 17181, "##с": 13416, "ㄉ": 650, "藏": 5966, "##ering": 12393, "ﾄ": 8092, "quick": 12345, "##虛": 19052, "##香": 20733, "##﹑": 21058, "##掐": 16017, "闪": 7306, "##wn": 10799, "呷": 1458, "丢": 696, "three": 8844, "##曇": 16336, "##腐": 18633, "黏": 7945, "##砾": 17850, "##绊": 18361, "瀏": 4104, "馏": 7671, "##傲": 14057, "迎": 6816, "毽": 3692, "##氓": 16754, "##躇": 19766, "[unused43]": 43, "##就": 15275, "##苟": 18789, "##箇": 18100, "ᵏ": 333, "population": 13271, "##菸": 18896, "倭": 963, "750": 9180, "紀": 5145, "##さん": 10874, "fantasy": 12436, "##饺": 20716, "邸": 6940, "tila": 10396, "饬": 7648, "##廃": 15497, "##羔": 18459, "烯": 4179, "##press": 12300, "##絞": 18237, "缙": 5358, "##桿": 16504, "泉": 3787, "orz": 10836, "##ータ": 12219, "謐": 6337, "氛": 3702, "##氤": 16764, "鞭": 7498, "囪": 1734, "鲁": 7826, "living": 12113, "129": 8990, "皙": 4647, "watch": 9114, "##擺": 16156, "##躍": 19770, "碉": 4807, "##崔": 15360, "##扼": 15879, "##喧": 14659, "##ye": 10522, "##伊": 13880, "シ": 604, "揉": 2987, "泊": 3788, "衮": 6138, "##罚": 18442, "品": 1501, "##謨": 19401, "##奮": 15013, "妆": 1966, "訥": 6255, "##憤": 15791, "##襠": 19257, "181": 10111, "饕": 7642, "##豔": 19551, "譯": 6358, "##究": 18012, "order": 11156, "祢": 4871, "彌": 2493, "##艘": 18732, "##刪": 14222, "davis": 11968, "##珙": 17458, "妩": 1982, "file": 9828, "##飞": 20664, "mr": 8912, "bbs": 9026, "##壤": 14949, "##ida": 12708, "寥": 2178, "契": 1943, "##懑": 15806, "芷": 5711, "force": 9019, "寮": 2185, "康": 2434, "颼": 7596, "##14": 8717, "##宥": 15205, "××": 8858, "娥": 2029, "##黝": 21009, "裹": 6181, "ec": 12470, "##同": 14455, "⑴": 415, "誰": 6306, "##ob": 11047, "##lines": 13052, "游": 3952, "茵": 5762, "袄": 6147, "##ように": 10847, "畏": 4519, "##011": 12424, "缘": 5357, "##玺": 17446, "facebook": 8200, "眼": 4706, "搂": 3008, "##赘": 19667, "昂": 3203, "##專": 15258, "##律": 15583, "##询": 19475, "##骛": 20804, "貂": 6503, "運": 6880, "##孳": 15174, "gdp": 8421, "##腹": 18649, "韌": 7501, "≤": 394, "##弭": 15538, "†": 339, "费": 6589, "##辦": 19851, "霧": 7460, "##恥": 15672, "##结": 18367, "扈": 2795, "劍": 1210, "##緘": 18277, "##陂": 20409, "##裙": 19227, "##罗": 18441, "nice": 10192, "127": 9274, "テリヘル": 12739, "##娄": 15073, "馁": 7664, "##譜": 19412, "##營": 17302, "殿": 3671, "踵": 6683, "##菜": 18888, "##铿": 20274, "##穎": 18006, "##羚": 18460, "坚": 1780, "##槃": 16595, "351": 12524, "国": 1744, "鮪": 7802, "jj": 11095, "fast": 11934, "##圭": 14821, "##腓": 18635, "〔": 526, "涓": 3871, "萎": 5848, "magazine": 10469, "##屈": 15292, "##乂": 13774, "202": 9707, "##釧": 20096, "##燒": 17297, "氯": 3714, "##訣": 19311, "膊": 5600, "腮": 5586, "win7": 8586, "##疫": 17611, "##hoo": 12638, "駅": 7686, "##问": 20366, "缩": 5367, "謬": 6345, "##峴": 15350, "##瀚": 17165, "##樫": 16624, "##每": 16737, "孳": 2117, "##遢": 19953, "##兢": 14113, "##拍": 15921, "52kb": 12811, "don": 9524, "##动": 14277, "711": 12565, "##鉛": 20118, "##齦": 21032, "##eg": 10935, "cisco": 11010, "##盘": 17726, "##chi": 10525, "##囗": 14779, "##乏": 13783, "墜": 1871, "如": 1963, "##倆": 13998, "1934": 9823, "##釣": 20094, "cookie": 8690, "笙": 5012, "##ah": 9082, "淋": 3900, "涨": 3885, "ping": 11891, "##ste": 11881, "##ゥ": 13681, "koreanmall": 9895, "##量": 20087, "决": 1104, "亮": 778, "##州": 15393, "晩": 3248, "##眶": 17759, "future": 11814, "##普": 16306, "tan": 12886, "##抄": 15883, "烃": 4163, "321": 9883, "##moon": 12682, "钨": 7173, "##iel": 11995, "##焙": 17246, "估": 844, "︱": 7993, "002": 11204, "##～3": 12617, "4gb": 10426, "##⑨": 13564, "##贿": 19651, "##ppy": 12738, "##尺": 15280, "##針": 20093, "3200": 10337, "##？": 21087, "熄": 4219, "##搽": 16083, "##抟": 15897, "遗": 6890, "淹": 3922, "##篡": 18127, "##聳": 18534, "jun": 8392, "##cer": 10326, "##posted": 12717, "娉": 2020, "##燕": 17299, "##vc": 12077, "##嗷": 14700, "natural": 12627, "run": 9909, "##鬼": 20844, "2g": 9422, "##shine": 12922, "ㄥ": 663, "豬": 6500, "##ｊ": 21097, "梁": 3448, "懾": 2759, "谛": 6465, "menu": 8888, "says": 9739, "##楚": 16561, "鹅": 7900, "##舖": 18712, "##吱": 14481, "##蚣": 19074, "##醴": 20076, "##聴": 18535, "##樹": 16629, "##肃": 18541, "javascript": 8561, "johnson": 11045, "蓝": 5905, "道": 6887, "⌒": 404, "who": 9372, "##傥": 14052, "腓": 5578, "##恋": 15662, "摟": 3038, "##才": 15855, "跟": 6656, "##浒": 16905, "緻": 5232, "融": 6084, "憋": 2728, "##诣": 19476, "孿": 2122, "锚": 7232, "氟": 3703, "##偶": 14038, "赴": 6626, "member": 11120, "##衔": 19181, "镂": 7251, "##墮": 14933, "##譯": 19415, "##文": 16209, "##母": 16735, "##ｈ": 21096, "嘣": 1663, "##歡": 16688, "嗒": 1623, "##卞": 14359, "n2": 11832, "ib": 12487, "##検": 16550, "軋": 6723, "籼": 5103, "##瓒": 17534, "anthony": 10219, "霆": 7447, "蚕": 6014, "##簍": 18136, "##毯": 16748, "##lt": 9238, "##誹": 19365, "##賞": 19599, "د": 265, "蒸": 5892, "◇": 471, "出": 1139, "途": 6854, "##mn": 11919, "##站": 18048, "##砧": 17841, "戦": 2778, "綏": 5193, "窕": 4968, "##烹": 17238, "##摒": 16091, "俸": 938, "##page": 11817, "溴": 3987, "瞭": 4747, "##探": 16025, "spf": 12598, "##履": 15309, "籤": 5097, "008": 12210, "##夔": 14967, "##嗬": 14694, "挨": 2917, "钛": 7160, "##減": 16995, "埤": 1820, "fifa": 12130, "##mall": 13307, "驼": 7729, "175": 9251, "ide": 11319, "##67": 9411, "##ps": 8525, "##睦": 17778, "苍": 5721, "筷": 5039, "能": 5543, "##掂": 16010, "##瘙": 17658, "旮": 3196, "柳": 3394, "齿": 7976, "搐": 3012, "獸": 4366, "##ｄ": 9835, "##こ": 8557, "1910": 10428, "##vel": 10588, "姿": 2013, "##痘": 17633, "芬": 5705, "##蝌": 19126, "##桢": 16496, "##男": 17568, "碼": 4826, "▽": 469, "##蝟": 19131, "##輯": 19801, "isbn": 8446, "##滌": 17054, "##镌": 20311, "沐": 3759, "374": 11948, "殉": 3653, "155": 9437, "棣": 3479, "##綸": 18266, "苣": 5734, "lily": 11228, "屆": 2234, "ν": 221, "臧": 5630, "##迥": 19886, "##弑": 15524, "94": 8416, "秤": 4911, "##辐": 19838, "##喂": 14642, "##2": 8144, "赘": 6610, "扣": 2807, "掂": 2953, "##菊": 18882, "##other": 11759, "湍": 3958, "##诗": 19465, "梏": 3451, "##奐": 14999, "##慎": 15765, "乾": 746, "[unused4]": 4, "爬": 4260, "褔": 6189, "##喳": 14667, "宫": 2151, "##斯": 16229, "1982": 8687, "##覇": 19266, "讓": 6366, "##暂": 16314, "##より": 10190, ")": 114, "草": 5770, "##ム": 9227, "##顛": 20602, "follow": 10792, "阱": 7343, "##飕": 20659, "##＼": 21090, "##tical": 11912, "##貂": 19560, "##誇": 19345, "冢": 1095, "纸": 5291, "谈": 6448, "隙": 7395, "歸": 3645, "嚴": 1713, "ecfa": 12496, "笆": 5006, "##詛": 19326, "##卍": 14346, "v2": 9636, "iphone6": 9878, "##盗": 17725, "##溜": 17034, "##助": 14278, "##№": 13518, "颠": 7585, "令": 808, "##及": 14407, "卮": 1311, "##赧": 19678, "##嫂": 15121, "##啵": 14634, "ᅩ": 311, "鎳": 7121, "want": 12733, "##悻": 15712, "##鄧": 20028, "108": 8692, "##□": 13606, "↓↓": 12558, "艷": 5684, "雋": 7418, "g7": 13053, "98": 8327, "##缘": 18414, "县": 1344, "既": 3188, "than": 13158, "歓": 3628, "nginx": 12576, "蒨": 5890, "鹏": 7905, "##佥": 13933, "忽": 2575, "##凿": 14199, "##躋": 19769, "铅": 7192, "鏢": 7129, "滤": 4009, "##眉": 17748, "cf1": 12327, "芎": 5694, "capital": 10715, "罔": 5382, "24": 8125, "飩": 7611, "##暐": 16320, "椁": 3487, "##濂": 17139, "##谕": 19517, "##足": 19696, "药": 5790, "吐": 1402, "##帶": 15437, "轲": 6765, "抛": 2837, "昌": 3208, "流": 3837, "胤": 5530, "##鸭": 20947, "f1": 9080, "恨": 2616, "轅": 6750, "lz": 10767, "[unused73]": 73, "##補": 19228, "##辮": 19856, "钰": 7177, "##俎": 13974, "倩": 959, "##粪": 18173, "##eme": 12538, "##?": 13337, "壕": 1887, "##財": 19569, "##錐": 20145, "church": 12914, "##del": 13283, "##瑀": 17495, "燁": 4233, "狎": 4315, "網": 5206, "體": 7768, "##ら": 8732, "##褻": 19253, "吼": 1432, "㗎": 670, "企": 821, "甩": 4501, "##tto": 11403, "##翰": 18489, "鎗": 7116, "抟": 2840, "β": 211, "▲top": 9125, "qualcomm": 13264, "矾": 4770, "read": 8649, "##95": 9102, "bat": 9806, "匝": 1268, "踌": 6671, "##孛": 15160, "##选": 19905, "##胶": 18597, "##照": 17269, "µ": 184, "##耗": 18507, "谭": 6478, "疼": 4563, "##罵": 18450, "‰": 344, "矛": 4757, "蝗": 6072, "##mic": 11341, "##千": 14340, "##踱": 19738, "##陶": 20435, "##砍": 17832, "##肠": 18556, "##翎": 18480, "hold": 10389, "txt": 8666, "486": 12459, "loftpermalink": 10056, "トラックハック": 12766, "521": 11411, "渝": 3939, "鍍": 7103, "##cn": 9435, "##恿": 15688, "##蝕": 19128, "##mv": 13275, "沛": 3764, "缢": 5363, "##碇": 17863, "[unused68]": 68, "脸": 5567, "鞍": 7491, "##ale": 11079, "仿": 820, "##＞": 11628, "##ood": 10919, "##嗔": 14682, "##滓": 17056, "赚": 6611, "㈦": 667, "[unused87]": 87, "##諦": 19377, "##诵": 19490, "泰": 3805, "##07": 9131, "248": 11009, "security": 11547, "##group": 13097, "##滄": 17050, "##砸": 17847, "##竺": 18059, "肺": 5511, "pg": 12898, "##寮": 15242, "##颅": 20622, "##鲤": 20891, "窿": 4984, "##嗳": 14698, "##鑫": 20201, "晤": 3245, "調": 6310, "##庫": 15487, "110": 8406, "##22": 8683, "micro": 10204, "##ᅣ": 13471, "##ush": 12670, "##ま": 9774, "＂": 8014, "１１": 10300, "photoshop": 9415, "尷": 2220, "雷": 7440, "##ハー": 10977, "energy": 11939, "##屋": 15295, "##her": 9856, "袋": 6150, "2018": 8271, "windows7": 12258, "##掸": 16038, "缔": 5354, "はい": 9781, "##辣": 19850, "t3": 11291, "嫩": 2075, "##また": 13150, "##ν": 13391, "##rtex": 12877, "##鑑": 20198, "1980": 8499, "##门": 20362, "edm": 11269, "梨": 3459, "550": 9090, "邺": 6942, "捡": 2939, "髻": 7775, "lucky": 12659, "audio": 11698, "攪": 3115, "##ㄏ": 13713, "##関": 20340, "##ᵘ": 13495, "apec": 9413, "##dical": 13168, "僻": 1020, "##详": 19479, "##貧": 19571, "岭": 2275, "杨": 3342, "##典": 14130, "23": 8133, "##幫": 15453, "可": 1377, "写": 1091, "殓": 3657, "達": 6888, "##sn": 12480, "##姊": 15049, "##橫": 16642, "##紀": 18202, "##魷": 20856, "422": 12721, "煎": 4203, "鴉": 7857, "##希": 15418, "皰": 4650, "隊": 7386, "編": 5226, "##祺": 17935, "##偏": 14031, "箐": 5047, "##藤": 19029, "抓": 2831, "蔷": 5925, "隱": 7403, "湟": 3962, "1981": 8785, "po": 8559, "[unused6]": 6, "##57": 9647, "##cher": 10824, "℃": 360, "##ous": 9822, "##ations": 11517, "##亚": 13819, "綫": 5202, "蝈": 6067, "ah": 10785, "445": 12834, "泻": 3811, "##卉": 14344, "##嫩": 15132, "sorry": 12758, "擄": 3077, "隅": 7383, "##沫": 16830, "呓": 1444, "遠": 6895, "##link": 9989, "##烫": 17233, "卫": 1310, "##珅": 17450, "copy": 11669, "##締": 18281, "##丛": 13747, "##鍵": 20164, "×email": 11175, "##mar": 11800, "掣": 2969, "##rman": 11386, "##岩": 15329, "a4": 9367, "##絹": 18248, "槍": 3541, "步": 3635, "荔": 5775, "911": 9911, "##卡": 14362, "##嵯": 15378, "kate": 11058, "毡": 3689, "##債": 14059, "●": 474, "##颉": 20626, "##ul": 10086, "宓": 2132, "綢": 5200, "##奥": 15009, "屜": 2246, "##漓": 17084, "##放": 16180, "##漯": 17094, "转": 6760, "##lay": 11969, "峪": 2289, "##ki": 8614, "program": 11738, "##sol": 12257, "##code": 10802, "##ネ": 13691, "##儼": 14092, "##box": 8927, "##剁": 14233, "##告": 14497, "##愷": 15759, "##猛": 17395, "##评": 19454, "homemesh": 9167, "##飾": 20674, "震": 7448, "rainer": 13076, "抬": 2848, "##傾": 14062, "##骇": 20794, "賁": 6532, "肉": 5489, "134": 9146, "千": 1283, "##槳": 16608, "嫻": 2078, "##汤": 16796, "##苇": 18776, "##lf": 9751, "##内": 14136, "##到": 14225, "從": 2537, "##倒": 14005, "##素": 18219, "郴": 6959, "昏": 3210, "牝": 4282, "のある": 10492, "structure": 13286, "##墨": 14931, "sh": 11167, "1936": 9481, "##忙": 15621, "##※": 13508, "##枫": 16424, "##薛": 19012, "ς": 225, "哭": 1526, "恩": 2617, "##ker": 9013, "##sen": 10387, "sports": 10646, "##淺": 16980, "pm1": 11819, "登": 4633, "##o2": 11110, "##寵": 15244, "卜": 1301, "900": 8567, "##itz": 12970, "窮": 4981, "睪": 4723, "##联": 18525, "硯": 4803, "何": 862, "##抚": 15893, "劑": 1212, "滥": 4010, "焕": 4185, "黝": 7952, "##盾": 17745, "挚": 2907, "彥": 2503, "##ctor": 9610, "鍵": 7107, "##っ": 12934, "炙": 4147, "##讼": 19447, "##俨": 13986, "sci": 11776, "对": 2190, "times": 9886, "洸": 3831, "臟": 5627, "冈": 1082, "##吞": 14468, "##済": 16984, "昉": 3206, "##垄": 14854, "勐": 1238, "腋": 5573, "##兑": 14107, "##脉": 18606, "##茜": 18809, "##めて": 12274, "720": 10503, "##尖": 15268, "iu": 13172, "##咋": 14525, "##墅": 14920, "##玉": 17430, "##亡": 13824, "tft": 12177, "##co": 8588, "##08": 9153, "販": 6516, "oldid": 13267, "##名": 14456, "濛": 4088, "馬": 7679, "##0m": 13079, "county": 13088, "孑": 2095, "##氢": 16762, "ᵒ": 335, "管": 5052, "31": 8176, "##98": 9215, "##麂": 20980, "##シ": 10472, "綵": 5208, "##lis": 10820, "壳": 1900, "##〕": 13662, "##杷": 16406, "add": 10253, "ᆯ": 323, "逐": 6852, "crm": 9991, "avi": 10548, "##偿": 14042, "##箱": 18113, "脊": 5550, "##緬": 18285, "##臣": 18685, "##burg": 12433, "拆": 2858, "##≦": 13547, "贿": 6594, "##惩": 15731, "趣": 6637, "bbe": 12517, "粑": 5107, "##8": 8156, "##瀾": 17174, "##邓": 19981, "##弘": 15530, "##蠢": 19168, "##绫": 18386, "##弥": 15534, "碇": 4806, "毕": 3684, "pixstyleme": 10344, "杳": 3347, "##暨": 16327, "269": 11023, "##well": 9665, "ᆸ": 325, "easy": 9935, "##忤": 15625, "##爐": 17314, "##live": 11888, "##皙": 17704, "##魅": 20848, "済": 3927, "##圍": 14809, "##nge": 10983, "##vertisement": 12021, "ل": 269, "ᅲ": 317, "哀": 1500, "秩": 4914, "##李": 16387, "毂": 3674, "鏡": 7128, "##鶴": 20931, "##罪": 18446, "##ぇ": 13669, "澆": 4068, "兢": 1056, "april": 9557, "##郭": 20015, "193": 10185, "鸭": 7890, "##繚": 18310, "##馒": 20729, "嗟": 1630, "铬": 7207, "##肌": 18548, "羔": 5402, "state": 10223, "似": 849, "滢": 4008, "痰": 4588, "##堡": 14893, "妒": 1971, "西": 6205, "##勝": 14302, "##徑": 15586, "##迴": 19893, "##椪": 16551, "##bug": 12351, "##躪": 19772, "炬": 4150, "观": 6225, "##30": 8471, "佣": 874, "豚": 6495, "work": 10782, "'": 112, "也": 738, "潢": 4055, "##为": 13768, "##湖": 17016, "阵": 7347, "##麥": 20987, "揍": 2988, "墨": 1874, "golden": 12746, "2345": 11209, "##♣": 13628, "##筐": 18085, "军": 1092, "蠻": 6116, "##单": 14353, "##専": 15254, "##觞": 19293, "##郁": 20001, "##馬": 20736, "green": 9631, "帕": 2364, "饗": 7643, "##紂": 18203, "抹": 2851, "##鵜": 20922, "椒": 3492, "ｖ": 8072, "ｇ": 8057, "##髦": 20828, "##顆": 20595, "##56": 9352, "##巳": 15405, "250": 8401, "##泰": 16862, "isp": 12036, "inparadise": 12484, "していると": 11915, "[unused40]": 40, "厩": 1338, "##性": 15652, "california": 13293, "揶": 3002, "##溫": 17041, "##獻": 17425, "腼": 5595, "[unused8]": 8, "##ย": 13446, "##昭": 16277, "褐": 6186, "##ρ": 13394, "熏": 4221, "##e": 8154, "##ゃ": 13674, "##垒": 14856, "น": 278, "ems": 9589, "弥": 2477, "8": 129, "1954": 9258, "##塢": 14911, "##桶": 16503, "妓": 1972, "膩": 5611, "篤": 5071, "##撩": 16118, "##轻": 19825, "##涼": 16950, "##登": 17690, "卑": 1292, "裝": 6172, "##電": 20499, "##点": 17214, "閲": 7289, "##灾": 17192, "##gl": 11406, "##躊": 19768, "##糯": 18197, "卡": 1305, "##紹": 18228, "##彫": 15565, "##欧": 16673, "蜇": 6047, "sony": 8772, "##都": 20020, "##铩": 20263, "##营": 18909, "往": 2518, "婶": 2050, "##count": 12369, "##的": 17695, "cafe2017": 8986, "et": 8867, "##守": 15184, "巧": 2341, "亡": 767, "庙": 2422, "##鐵": 20193, "##ico": 10641, "f16": 12799, "茁": 5743, "##绣": 18380, "##績": 18302, "￥": 8101, "ltxsw": 8793, "##颱": 20650, "pptv": 12123, "##籁": 18147, "##奋": 14996, "涕": 3873, "虽": 6006, "柵": 3396, "##蜷": 19120, "##踹": 19741, "##姨": 15064, "market": 9095, "栗": 3412, "暝": 3267, "##ok": 9185, "##lie": 10158, "##兜": 14112, "艙": 5676, "##bert": 10491, "##999": 11430, "##叔": 14413, "盤": 4676, "驹": 7727, "##呗": 14503, "##繭": 18316, "稀": 4921, "##绿": 18401, "匠": 1269, "1111": 11954, "屎": 2241, "塬": 1857, "怯": 2598, "offer": 10038, "[unused72]": 72, "##2013": 9023, "cdma": 12902, "##苗": 18785, "霑": 7455, "もっと": 10642, "##蟑": 19153, "##饷": 20715, "##靖": 20530, "##醍": 20063, "擂": 3076, "##俄": 13972, "ᄎ": 299, "bc": 10954, "##喀": 14641, "##绢": 18379, "##o": 8167, "侈": 890, "呛": 1448, "##庾": 15494, "##24": 8682, "##r4": 13032, "##写": 14148, "##桂": 16481, "##鸠": 20939, "惜": 2667, "##滯": 17072, "##urt": 10857, "img": 11412, "l1": 12421, "##du": 11202, "##匪": 14329, "claire": 9753, "b6": 11384, "锭": 7240, "协": 1291, "##茲": 18817, "lan": 11461, "##ｼ": 21112, "226": 10436, "##索": 18221, "汕": 3730, "##漸": 17098, "##荨": 18844, "塊": 1846, "##涵": 16948, "20℃": 12926, "歉": 3624, "6g": 13147, "##4": 8159, "##uch": 12752, "[unused26]": 26, "鲶": 7839, "櫸": 3606, "綺": 5210, "r2": 11345, "##噔": 14740, "颓": 7575, "festival": 11720, "##bel": 12157, "磲": 4839, "##昇": 16262, "##亏": 13812, "##沁": 16808, "##art": 9528, "kim": 10683, "##甕": 17547, "##淡": 16966, "##贮": 19637, "夠": 1917, "##奪": 15011, "##賣": 19603, "msi": 12560, "##阅": 20382, "##頫": 20587, "##芽": 18772, "蕾": 5945, "谀": 6442, "胱": 5537, "##\"": 13318, "勞": 1246, "##恵": 15682, "pan": 11641, "鉚": 7060, "##嗓": 14681, "##竭": 18055, "##ime": 11218, "pantos": 10030, "##塑": 14905, "##ｲ": 21110, "##てきる": 11415, "##攞": 16167, "戴": 2785, "##诅": 19455, "恶": 2626, "too": 11928, "##曜": 16340, "锄": 7221, "75": 8273, "##here": 10659, "qvod": 10554, "布": 2357, "5kg": 13183, "##咲": 14551, "##ough": 11600, "阳": 7345, "a3": 10156, "##经": 18364, "蹄": 6686, "慌": 2707, "事": 752, "纬": 5281, "非": 7478, "魂": 7789, "kpi": 11025, "sf": 11176, "##洶": 16887, "宜": 2139, "1975": 8974, "s8": 8940, "##ez": 11640, "##隐": 20448, "##靓": 20529, "欲": 3617, "##520": 13241, "躁": 6708, "##保": 13981, "站": 4991, "關": 7302, "##筊": 18081, "##蹴": 19760, "畑": 4520, "##災": 17191, "聳": 5477, "##ティー": 12841, "##熙": 17281, "##とは": 11896, "610": 10248, "豪": 6498, "##剤": 14251, "##趁": 19687, "##鼹": 21021, "##開": 20331, "##sk": 8998, "555": 11723, "2019": 9160, "僧": 1014, "海": 3862, "lo": 12264, "512": 11530, "##獺": 17424, "##邮": 19991, "粉": 5106, "[unused12]": 12, "exhibition": 13282, "##鮮": 20861, "##鲟": 20889, "cm": 9326, "##椎": 16548, "剽": 1203, "酋": 6979, "323": 11221, "匙": 1267, "##鸞": 20937, "58": 8255, "次": 3613, "made": 10123, "##驸": 20783, "284": 11437, "##令": 13865, "欄": 3608, "##洄": 16873, "蜒": 6051, "unix": 10515, "指": 2900, "##粉": 18163, "##猶": 17405, "##柞": 16443, "##绚": 18372, "鞦": 7497, "渔": 3934, "犄": 4299, "swift": 10081, "舂": 5642, "##捷": 16006, "##鴦": 20917, "揭": 2999, "榨": 3529, "##堤": 14894, "##么": 13777, "##昊": 16264, "##趨": 19695, "氮": 3713, "根": 3418, "畫": 4529, "移": 4919, "膛": 5605, "纜": 5271, "蒞": 5887, "##枯": 16426, "2d": 9648, "廷": 2455, "##ound": 11477, "50cm": 11721, "椹": 3497, "##ンク": 9262, "##cd": 10340, "windows": 8235, "##镰": 20323, "##驳": 20779, "襪": 6201, "驻": 7728, "##辨": 19852, "犀": 4297, "てお": 10393, "ﾟ": 8099, "##述": 19892, "##蝎": 19127, "##候": 14009, "##矇": 17810, "##懼": 15815, "￣": 8100, "さんも": 11835, "逸": 6871, "址": 1770, "紘": 5157, "150": 8269, "棹": 3485, "##ci": 9702, "##橇": 16634, "81": 8424, "##氡": 16761, "##燿": 17311, "##藿": 19034, "賀": 6531, "嗦": 1634, "##詔": 19324, "ก": 276, "嘯": 1669, "docker": 10290, "萩": 5856, "##卒": 14350, "诊": 6402, "##壆": 14939, "髅": 7763, "##鵰": 20926, "##裕": 19225, "飨": 7610, "##down": 11140, "##谐": 19512, "離": 7431, "溺": 3989, "萸": 5860, "黴": 7957, "躋": 6712, "279": 11427, "##庆": 15469, "##瀧": 17170, "api": 8726, "##烽": 17239, "##邈": 19976, "##殼": 16727, "臻": 5638, "##牒": 17336, "灑": 4120, "reuters": 11778, "##廢": 15507, "##舊": 18705, "ea": 9714, "##jie": 12732, "##х": 13420, "##喔": 14652, "蝸": 6080, "##吠": 14470, "##孬": 15171, "委": 1999, "叛": 1361, "钼": 7184, "澗": 4072, "顫": 7548, "at": 8243, "ロクイン": 12071, "uniqlo": 11905, "##〇": 13649, "##氏": 16751, "no": 8275, "##舷": 18725, "##，": 21080, "16gb": 11340, "滝": 4004, "邇": 6918, "##袄": 19204, "##塊": 14903, "代": 807, "車": 6722, "dll": 9614, "##辱": 19859, "##腈": 18628, "##唑": 14596, "xa": 12626, "##嗇": 14677, "豈": 6488, "pmid": 11804, "##姦": 15063, "##bike": 13276, "nas": 10157, "朱": 3319, "絞": 5180, "訓": 6246, "##蠶": 19171, "##讫": 19434, "840": 12776, "切": 1147, "ldquo": 10616, "##瞩": 17801, "##06": 8839, "嫑": 2067, "近": 6818, "##隼": 20465, "##睡": 17774, "##玩": 17438, "瑞": 4448, "285": 10938, "##婦": 15101, "##砖": 17835, "##醐": 20064, "##nne": 12866, "吉": 1395, "##壓": 14943, "##碘": 17871, "##惠": 15726, "辛": 6789, "##吵": 14484, "gundam": 12523, "搬": 3021, "o2o": 8590, "蕲": 5942, "艋": 5674, "蹤": 6697, "された": 10438, "1983": 8715, "##檜": 16652, "##ed": 8303, "##白": 17692, "容": 2159, "##臆": 18678, "##头": 14985, "school": 9467, "&": 111, "柩": 3390, "辅": 6774, "##ㄨ": 13723, "##2016": 8386, "##徼": 15607, "##灵": 17187, "##fx": 13122, "净": 1112, "果": 3362, "##応": 15622, "培": 1824, "愈": 2689, "118": 8966, "##螨": 19144, "恪": 2618, "雏": 7422, "seven": 12684, "據": 3087, "##叛": 14418, "##昕": 16270, "檔": 3593, "##槟": 16604, "##祥": 17929, "##mail": 10984, "赈": 6600, "##濘": 17144, "##苏": 18779, "仝": 804, "涸": 3892, "##實": 15236, "##邝": 19984, "[unused32]": 32, "腈": 5571, "﹍": 7998, "绍": 5305, "荖": 5776, "##φ": 13399, "噪": 1692, "##篷": 18133, "350": 8612, "canmake": 13298, "挞": 2910, "##邁": 19971, "餒": 7624, "##卸": 14376, "甦": 4499, "傩": 997, "风": 7599, "谙": 6463, "珏": 4398, "迹": 6839, "##鰲": 20872, "##太": 14979, "##轅": 19807, "709": 12118, "１５": 11213, "校": 3413, "羹": 5416, "鲑": 7829, "購": 6554, "##搪": 16077, "##琐": 17478, "##盒": 17722, "##佯": 13936, "##脑": 18611, "##阳": 20402, "渗": 3935, "ら": 578, "##space": 12246, "##玫": 17439, "汉": 3727, "##左": 15397, "##骏": 20799, "##ein": 11858, "燥": 4246, "##畜": 17580, "冾": 1111, "##unge": 13077, "47": 8264, "協": 1295, "##ります": 11395, "121": 9247, "匈": 1261, "##亩": 13831, "減": 3938, "##渎": 16989, "浣": 3854, "路": 6662, "##購": 19611, "##栎": 16464, "##焯": 17251, "喷": 1613, "护": 2844, "ⅱ": 364, "##明": 16266, "30ml": 11234, "##臼": 18696, "##卖": 14354, "蕨": 5938, "##♀": 13624, "##岡": 15328, "##痕": 17632, "##扦": 15865, "##蛔": 19088, "##渡": 16998, "pt": 10791, "掰": 2976, "方": 3175, "▲": 464, "粿": 5126, "##ュー": 12778, "たと": 12883, "##os": 8470, "##蚓": 19070, "##16": 8518, "##墒": 14923, "昨": 3219, "肋": 5490, "蚝": 6016, "##堂": 14885, "283": 11152, "はしめまして": 13012, "边": 6804, "##衡": 19187, "##怅": 15637, "批": 2821, "##銖": 20127, "戡": 2777, "##诙": 19467, "##入": 14114, "椿": 3499, "##糖": 18188, "鳗": 7849, "辆": 6775, "恤": 2614, "##矛": 17814, "jonathan": 11559, "##覦": 19272, "##痹": 17648, "##倦": 14015, "究": 4955, "##牴": 17349, "##馄": 20722, "##朝": 16365, "##lo": 8897, "##绪": 18385, "##獣": 17416, "邮": 6934, "##蜆": 19103, "##遷": 19964, "##蔣": 18976, "惆": 2659, "##桐": 16489, "8g": 10019, "[unused71]": 71, "垒": 1799, "williams": 11475, "##严": 13755, "76": 8399, "##旨": 16249, "##挠": 15969, "rp": 12771, "##蔔": 18971, "##萄": 18900, "##須": 20576, "浙": 3851, "pokemon": 8934, "linkedin": 11369, "##榜": 16585, "镰": 7266, "##微": 15601, "##埠": 14876, "##クok": 13040, "备": 1906, "3400": 13294, "废": 2426, "playstation": 11026, "##員": 14576, "##槁": 16594, "##x2": 12505, "[unused30]": 30, "重": 7028, "##π": 13393, "ex": 9577, "♬": 495, "e88": 13313, "##lr": 10712, "700": 8389, "##屹": 15313, "廉": 2442, "##榉": 16580, "##泄": 16843, "##mine": 12723, "##unch": 11294, "恫": 2619, "籠": 5096, "##隕": 20450, "##音": 20566, "遣": 6897, "√": 380, "魯": 7798, "usd": 9259, "##强": 15544, "ˈ": 202, "session": 11605, "##襪": 19258, "氹": 3720, "嫂": 2064, "##撂": 16104, "##镣": 20320, "庠": 2427, "、": 510, "碾": 4827, "##♫": 13630, "ه": 272, "解": 6237, "酗": 6984, "##毀": 16729, "##瘁": 17653, "##窈": 18020, "##非": 20535, "鮨": 7801, "料": 3160, "楂": 3500, "猿": 4351, "偉": 971, "嗇": 1620, "擎": 3083, "螃": 6083, "##▬": 13609, "庖": 2420, "閘": 7281, "★": 480, "選": 6908, "サイト": 11572, "##馋": 20726, "绪": 5328, "酯": 6994, "660": 9936, "##渗": 16992, "##銀": 20122, "##注": 16857, "鐺": 7138, "##its": 11275, "##＋": 11267, "##蕊": 18991, "##裡": 19231, "##鬥": 20841, "闘": 7301, "616": 13226, "矣": 4760, "别": 1166, "best": 9186, "盘": 4669, "遢": 6896, "×": 190, "噩": 1691, "式": 2466, "慈": 2705, "靠": 7479, "job": 12539, "##ヤ": 13696, "##託": 19306, "##賜": 19598, "ing": 10139, "杆": 3327, "梶": 3465, "取": 1357, "6p": 12786, "駝": 7692, "##洮": 16883, "##芍": 18750, "##誥": 19357, "##蕃": 18988, "##岷": 15335, "鳞": 7851, "##顧": 20604, "##汲": 16801, "馒": 7672, "##磊": 17887, "##襟": 19256, "##栽": 16477, "抚": 2836, "蜷": 6063, "倔": 949, "##凋": 14175, "##jing": 12128, "##狮": 17383, "##イン": 10108, "##∞": 13533, "##a": 8139, "##酬": 20049, "宾": 2161, "ウ": 593, "=": 134, "##ᄇ": 13460, "##閘": 20338, "wade": 12542, "耳": 5455, "ff": 12388, "兆": 1042, "##哦": 14578, "侨": 905, "##納": 18209, "饴": 7655, "##膻": 18671, "##】": 13659, "android": 8254, "##gnet": 13308, "##緝": 18279, "##繆": 18305, "猗": 4336, "韵": 7510, "##蓬": 18965, "偎": 973, "##飒": 20657, "##拎": 15922, "槳": 3551, "始": 1993, "##沢": 16824, "漩": 4033, "##俺": 13996, "245": 10325, "##灶": 17188, "唤": 1542, "i7": 10008, "yu": 10825, "摻": 3046, "##yn": 10879, "##م": 13436, "##埋": 14870, "##body": 11326, "更": 3291, "衫": 6136, "趋": 6633, "仟": 806, "##良": 18736, "##覽": 19279, "冀": 1078, "##露": 20520, "##痤": 17640, "[unused59]": 59, "##sm": 10244, "##版": 17333, "##藐": 19024, "evolution": 12691, "##喬": 14662, "##易": 16268, "##银": 20270, "幹": 2402, "##ь": 13425, "##婶": 15107, "##胍": 18578, "user": 9870, "##访": 19450, "堇": 1832, "により": 11301, "##敗": 16191, "##恒": 15665, "涌": 3869, "##熬": 17285, "跨": 6659, "締": 5224, "##なり": 11592, "幔": 2390, "fan": 11925, "##2009": 9948, "##劾": 14288, "家": 2157, "帅": 2358, "##哎": 14568, "勾": 1256, "暨": 3270, "舗": 5656, "##u": 8207, "##栄": 16458, "##符": 18073, "##ness": 10077, "璁": 4460, "alexander": 11733, "16g": 12823, "##节": 18745, "##濃": 17140, "莽": 5818, "缕": 5355, "俊": 916, "##記": 19307, "##賄": 19592, "mango": 12645, "##鉻": 20121, "擘": 3086, "益": 4660, "##伞": 13892, "雛": 7428, "営": 1612, "悵": 2652, "耆": 5443, "##set": 9852, "掛": 2965, "##コメント": 13301, "恥": 2615, "靳": 7485, "##弗": 15529, "鳃": 7842, "g2": 12179, "##论": 19446, "##賴": 19609, "旁": 3178, "汽": 3749, "page": 9040, "worldcat": 10698, "##衫": 19193, "##陆": 20412, "##580": 10703, "##戬": 15837, "澧": 4076, "##tech": 11761, "##豐": 19550, "跩": 6660, "##未": 16370, "笑": 5010, "饱": 7653, "##軌": 19781, "蝼": 6081, "##锹": 20303, "minkoff": 11018, "票": 4873, "eeworld": 12490, "##blog": 10877, "##渴": 17008, "霎": 7453, "《": 517, "2003": 8263, "##ᆻ": 13487, "報": 1841, "攤": 3113, "495": 12895, "蔚": 5917, "險": 7402, "による": 12228, "ㄚ": 657, "##唇": 14592, "##瞬": 17803, "##姫": 15066, "##蜒": 19108, "##銹": 20135, "##魂": 20846, "##衆": 19177, "##vic": 11956, "##夯": 14983, "##榴": 16591, "##cker": 10603, "villa": 10806, "create": 12432, "foundation": 12099, "壇": 1883, "丫": 703, "忙": 2564, "蕙": 5936, "##ti": 9007, "哲": 1528, "main": 9139, "172": 9801, "椋": 3489, "琮": 4429, "髋": 7764, "##彰": 15568, "##泯": 16861, "❀": 505, "##tal": 9917, "##ded": 11363, "##嬤": 15142, "##験": 20756, "4800": 12488, "##诤": 19477, "moon": 9921, "##哆": 14561, "飲": 7614, "thai": 12967, "dns": 9580, "##漲": 17096, "扼": 2822, "障": 7397, "蘆": 5978, "##魍": 20850, "悱": 2649, "bbc": 8846, "##腼": 18652, "杷": 3349, "##鍋": 20159, "##揉": 16044, "omega": 11938, "##惮": 15735, "arduino": 12697, "润": 3883, "瓢": 4479, "##曾": 16352, "##炕": 17202, "掉": 2957, "##诫": 19482, "##切": 14204, "##沏": 16815, "##駿": 20752, "瞌": 4734, "占": 1304, "##傀": 14043, "idea": 11834, "##娟": 15083, "##狒": 17374, "##逵": 19926, "140": 8468, "dark": 12705, "埕": 1816, "嘌": 1650, "広": 2410, "##真": 17753, "##芻": 18771, "##錳": 20156, "##倉": 13999, "##莢": 18865, "eye": 11650, "蚪": 6020, "‥": 341, "##吁": 14447, "恍": 2606, "##猜": 17396, "渡": 3941, "蕁": 5930, "铭": 7208, "顿": 7561, "##ｘ": 13047, "酢": 6987, "##周": 14510, "宝": 2140, "遴": 6904, "##闽": 20377, "##楝": 16562, "##翌": 18479, "anti": 9204, "提": 2990, "##cing": 11540, "➤": 508, "匪": 1272, "##腰": 18644, "coach": 10784, "##荳": 18848, "##蜊": 19106, "危": 1314, "777": 9800, "薦": 5956, "##拒": 15924, "##毁": 16730, "##袱": 19217, "##堑": 14890, "u": 163, "##黛": 21007, "##侥": 13959, "烛": 4169, "胖": 5523, "##矍": 17811, "##漣": 17089, "[unused69]": 69, "navigation": 12232, "余": 865, "亚": 762, "tips": 9104, "##廟": 15505, "##time": 9785, "##寛": 15229, "咳": 1495, "##town": 11323, "榻": 3536, "cool1": 12032, "胯": 5535, "伕": 829, "##矮": 17822, "##w": 8220, "杈": 3328, "m3": 9305, "##管": 18109, "政": 3124, "##華": 18893, "氦": 3708, "尽": 2226, "##～5": 11864, "##醉": 20061, "264": 10212, "##いました": 11350, "santa": 12321, "晋": 3232, "[unused25]": 25, "矢": 4759, "##sent": 11836, "##帑": 15420, "纂": 5264, "march": 9581, "窓": 4967, "郦": 6954, "##碎": 17867, "职": 5466, "##頼": 20594, "ｏ": 8065, "##姪": 15065, "cache": 10991, "##150": 12041, "直": 4684, "簾": 5088, "毁": 3673, "##移": 17976, "##舱": 18722, "蠹": 6115, "y": 167, "耷": 5457, "财": 6568, "依": 898, "饿": 7662, "88": 8302, "殘": 3659, "仇": 790, "with": 8663, "e6": 11639, "##楣": 16565, "##狰": 17384, "##賠": 19600, "##zon": 10623, "valley": 11994, "##攀": 16159, "喂": 1585, "犬": 4305, "配": 6981, "##anonymoussaid": 10813, "fa": 12289, "009": 12292, "疙": 4546, "9000": 9117, "##賬": 19607, "##倫": 14018, "##珪": 17464, "客": 2145, "匍": 1262, "軍": 6725, "俞": 925, "颞": 7584, "##长": 20327, "##baby": 12515, "哮": 1527, "帚": 2367, "秋": 4904, "##37": 9474, "##iko": 11480, "##描": 16046, "##厲": 14398, "目": 4680, "##摊": 16090, "せ": 549, "##膦": 18666, "怏": 2583, "f4": 11464, "vincent": 10993, "##bia": 12596, "##拷": 15950, "##龙": 21044, "##he": 9977, "く": 543, "庵": 2432, "犁": 4298, "##瞪": 17802, "##比": 16740, "筵": 5038, "##谏": 19511, "秀": 4899, "劲": 1226, "溝": 3978, "狹": 4330, "##2012": 9285, "鏞": 7126, "##宁": 15180, "##ina": 9314, "##庠": 15484, "##酚": 20042, "vmalife": 10823, "搶": 3024, "##ˇ": 13371, "ln284ct": 12969, "姬": 2010, "##媒": 15111, "fishbase": 13316, "疮": 4555, "镖": 7259, "##侠": 13956, "ﾉ": 8093, "##团": 14787, "##众": 13887, "##ς": 13395, "鼾": 7966, "##蚪": 19077, "sns": 10884, "powerpoint": 12176, "##阇": 20384, "3ds": 11755, "##须": 20614, "犢": 4303, "##ヶ": 10569, "##rmb": 10894, "##抒": 15887, "850": 10205, "##em": 9736, "握": 2995, "柯": 3392, "妙": 1975, "撈": 3051, "绀": 5297, "繫": 5258, "[unused34]": 34, "艰": 5680, "##娘": 15080, "##慮": 15776, "踱": 6681, "合": 1394, "條": 3454, "砍": 4775, "64㎡": 13011, "##谑": 19513, "崆": 2299, "##槓": 16601, "浓": 3849, "壩": 1893, "俪": 931, "##獐": 17412, "##悌": 15692, "##15": 8493, "º": 187, "躺": 6720, "铉": 7194, "##０": 8569, "policy": 8659, "jordan": 9229, "bim": 11749, "359": 12027, "いを": 12029, "醇": 7003, "##pods": 13284, "##栾": 16478, "##発": 17689, "衢": 6131, "迷": 6837, "67": 8369, "##輟": 19798, "##暇": 16316, "##する": 9840, "##庁": 15466, "##袞": 19212, "##鑄": 20196, "##悶": 15710, "皈": 4641, "芊": 5691, "grace": 11587, "zenfone": 11726, "岷": 2278, "##砂": 17830, "啡": 1565, "##host": 12227, "##仨": 13867, "##夠": 14974, "##嘀": 14702, "##握": 16052, "唄": 1533, "##凰": 14190, "##刻": 14231, "##达": 19866, "##骚": 20803, "##tion": 8361, "##鴉": 20914, "##鷹": 20934, "sport": 10669, "济": 3845, "##閏": 20333, "耕": 5449, "滑": 3998, "搗": 3016, "逻": 6872, "##莓": 18860, "③": 407, "蟋": 6094, "##栅": 16459, "栖": 3411, "##颌": 20628, "##葡": 18925, "address": 13093, "医": 1278, "娑": 2021, "usb": 8335, "##储": 14053, "精": 5125, "眩": 4700, "##用": 17557, "790": 11793, "##葱": 18933, "##貽": 19586, "砌": 4774, "辮": 6799, "衷": 6141, "##眨": 17756, "##wo": 10911, "项": 7555, "karl": 13263, "啶": 1578, "敛": 3137, "蛭": 6036, "##炀": 17194, "##狸": 17386, "柒": 3380, "##選": 19965, "褂": 6184, "##菀": 18877, "##鬱": 20843, "112": 9017, "##棋": 16527, "垄": 1797, "##ade": 10233, "##図": 14797, "##ae": 10361, "##徐": 15585, "愿": 2703, "對": 2205, "2001": 8285, "##舂": 18699, "##莊": 18857, "浒": 3848, "楊": 3501, "##蓟": 18963, "##鸪": 20946, "滔": 4000, "у": 251, "鹕": 7907, "##集": 20472, "food": 9579, "麝": 7928, "炮": 4152, "焚": 4190, "貴": 6523, "##app": 11259, "##堪": 14895, "##粵": 18178, "next": 9321, "199": 9092, "##塗": 14907, "##芃": 18746, "##芭": 18763, "##荃": 18825, "##訶": 19318, "##说": 19489, "變": 6365, "rmb": 10887, "熟": 4225, "##迢": 19884, "舔": 5654, "沈": 3755, "qs": 11974, "centre": 10964, "##hur": 13190, "##ᄑ": 13468, "釐": 7031, "auto": 11327, "##察": 15232, "##恕": 15666, "##疚": 17604, "##啱": 14632, "##眙": 17751, "##粥": 18171, "##53": 9310, "碗": 4813, "##をこ": 12335, "支": 3118, "##摸": 16100, "燿": 4254, "騷": 7703, "柬": 3391, "##椽": 16555, "##齒": 21028, "##佻": 13941, "##谧": 19530, "值": 966, "憾": 2742, "archive": 12884, "##lc": 11097, "##祟": 17926, "♂": 487, "223": 10265, "rakuten": 10249, "##ship": 11987, "##😎": 21127, "铣": 7203, "##胚": 18581, "##次": 16670, "##懂": 15800, "##釗": 20090, "##厘": 14387, "analytics": 12824, "shell": 10651, "##≥": 13546, "##瓷": 17544, "##唄": 14590, "##獠": 17415, "##3": 8152, "yougou": 10852, "[unused15]": 15, "##慢": 15771, "value": 10850, "##瘍": 17655, "﹙": 8007, "剤": 1194, "##▪": 13607, "##領": 20583, "」": 520, "綬": 5203, "嚕": 1707, "morning": 12885, "徑": 2529, "##层": 15288, "[unused98]": 98, "off": 9594, "搜": 3017, "煙": 4206, "饋": 7637, "陈": 7357, "##懊": 15804, "##缮": 18427, "##鹈": 20958, "##短": 17821, "##スト": 10579, "僱": 1017, "引": 2471, "##簿": 18146, "##絢": 18239, "丐": 681, "##逞": 19918, "##孟": 15163, "箍": 5045, "段": 3667, "於": 3176, "琨": 4426, "##cm～": 13123, "##ة": 13429, "划": 1153, "gnu": 12367, "##服": 16359, "##ument": 11867, "##梦": 16514, "粒": 5108, "##沂": 16809, "笛": 5013, "缮": 5370, "键": 7241, "梗": 3453, "钦": 7171, "##棍": 16528, "唾": 1552, "慟": 2713, "##珥": 17462, "##筒": 18087, "##蛹": 19097, "彫": 2508, "##冊": 14141, "##誠": 19353, "鹤": 7911, "##诲": 19488, "链": 7216, "恁": 2602, "##san": 10978, "ed": 9599, "禀": 4880, "析": 3358, "棂": 3467, "疖": 4544, "拾": 2896, "ღ": 287, "##～17": 12405, "##截": 15836, "##豊": 19547, "夥": 1919, "##洲": 16885, "封": 2196, "絕": 5179, "帷": 2381, "込": 6807, "娲": 2032, "晴": 3252, "##900": 10589, "##‿": 13509, "約": 5147, "##脏": 18609, "blogger": 9742, "leo": 11901, "650": 9291, "index": 9405, "##bor": 12268, "##った": 9190, "##ᵐ": 13493, "~": 172, "##厕": 14386, "list": 9691, "cio": 9351, "##eep": 12293, "钤": 7169, "##腮": 18643, "辍": 6780, "暉": 3261, "##鹄": 20956, "##╞": 13589, "患": 2642, "##嗰": 14696, "鬼": 7787, "##慈": 15762, "##糙": 18190, "糠": 5137, "５": 8033, "##play": 10324, "emc": 12341, "拚": 2874, "##囡": 14786, "##忒": 15617, "﹗": 8006, "##胁": 18573, "鹈": 7901, "##話": 19339, "##鏈": 20179, "帽": 2384, "翼": 5437, "##跎": 19707, "si": 10883, "[unused83]": 83, "##症": 17625, "锣": 7236, "莹": 5816, "ｯ": 8086, "迈": 6815, "僅": 1006, "苟": 5732, "铿": 7217, "搪": 3020, "##蜘": 19112, "##甭": 17561, "刁": 1144, "健": 978, "矚": 4756, "痨": 4585, "議": 6359, "bonnie": 12972, "##杓": 16391, "蟎": 6095, "昊": 3207, "##楹": 16573, "##鞠": 20552, "##ial": 9501, "##猫": 17401, "##丝": 13749, "##蛙": 19089, "##郤": 20010, "##飨": 20667, "てきます": 11397, "##銮": 20132, "##霍": 20509, "褒": 6187, "##ith": 11440, "tokichoi": 13086, "槿": 3554, "渋": 3930, "##ᅡ": 10928, "##开": 15515, "儂": 1022, "##狙": 17376, "盎": 4661, "##胥": 18588, "coupe": 13142, "##东": 13748, "##虾": 19064, "##沈": 16812, "嚼": 1715, "挂": 2899, "翘": 5426, "london": 9978, "嬅": 2079, "##懦": 15808, "##脇": 18604, "##裳": 19235, "娘": 2023, "reply": 9008, "攻": 3122, "##笨": 18074, "##zzi": 12939, "傥": 995, "##覓": 19269, "垭": 1808, "苏": 5722, "elle": 11593, "##ile": 9729, "##ep": 11613, "##埕": 14873, "##恫": 15676, "氫": 3712, "際": 7396, "crv3000": 12588, "羌": 5400, "衞": 6129, "g3": 12493, "##擔": 16142, "##to": 8527, "激": 4080, "✕": 498, "##又": 14405, "##掩": 16030, "##淋": 16957, "祺": 4878, "硒": 4797, "##ぬ": 13670, "釗": 7033, "##趋": 19690, "##≪": 13549, "淵": 3920, "##皺": 17710, "橐": 3579, "##鬢": 20839, "している": 10084, "##麗": 20984, "去": 1343, "##よって": 12957, "##斗": 16216, "design": 9225, "twice": 13054, "##═": 13586, "鷗": 7875, "##库": 15474, "##uma": 13083, "##梢": 16513, "惋": 2662, "##蹂": 19742, "##粘": 18168, "##來": 13946, "擱": 3095, "词": 6404, "薪": 5959, "32g": 13181, "##耀": 18495, "罄": 5378, "##繁": 18303, "##ラ": 9210, "##继": 18383, "##呎": 14499, "eur": 11991, "なとはお": 12143, "annie": 11022, "##隠": 20455, "酒": 6983, "tags": 9214, "##瑋": 17498, "mlb": 9905, "##鈣": 20105, "339": 11863, "団": 1731, "磅": 4829, "suite": 11420, "pa": 9519, "##泥": 16856, "##肽": 18569, "##莉": 18856, "整": 3146, "##吨": 14474, "##謎": 19393, "##蛾": 19099, "紡": 5163, "舀": 5641, "各": 1392, "##祗": 17920, "##涯": 16946, "鯉": 7805, "##織": 18308, "統": 5186, "姐": 1995, "苔": 5726, "##砣": 17839, "茸": 5764, "river": 10835, "信": 928, "season": 11220, "cloud": 10279, "燻": 4252, "屢": 2250, "##ore": 9132, "玑": 4375, "##漁": 17079, "##bee": 11162, "渭": 3948, "frm": 11794, "395": 12481, "##懵": 15810, "##婚": 15099, "##疤": 17609, "##郎": 20004, "day4": 12890, "士": 1894, "丛": 690, "not": 9059, "##碁": 17862, "##寒": 15227, "棟": 3477, "孰": 2115, "##鴛": 20916, "##愕": 15750, "##◇": 13614, "##44": 9292, "##葵": 18935, "##蒟": 18945, "##sse": 12754, "駭": 7693, "##铵": 20269, "tue": 8483, "##爲": 17321, "##₂": 12831, "##gma": 12880, "浇": 3842, "粗": 5110, "##share": 11042, "とは": 11556, "惑": 2663, "##綦": 18258, "maria": 12096, "砺": 4791, "##ⅱ": 13520, "餅": 7619, "119": 9031, "after": 10100, "##rk": 10364, "##mobile": 13217, "##傷": 14060, "##蹈": 19745, "##剖": 14246, "##陈": 20414, "power": 9239, "##影": 15569, "eyes": 12909, "兑": 1050, "code": 8700, "驾": 7730, "０": 8028, "￥799": 9417, "##划": 14210, "##显": 16284, "##瀞": 17168, "饰": 7652, "##顽": 20616, "珥": 4405, "##咯": 14549, "##n1": 11310, "g": 149, "リストに": 11101, "##乐": 13784, "##垭": 14865, "善": 1587, "##駭": 20750, "种": 4905, "##窺": 18040, "潸": 4063, "##康": 15491, "##膽": 18672, "##禺": 17951, "d5": 12987, "##◆◆": 13019, "##氷": 16775, "稗": 4927, "##self": 13061, "##牯": 17347, "type": 9178, "⑸": 419, "炕": 4145, "##ena": 12000, "##惋": 15719, "##皑": 17701, "イ": 591, "鵡": 7867, "粧": 5115, "##羅": 18454, "109": 8965, "##肏": 18549, "##ani": 13154, "壤": 1892, "##体": 13917, "##《": 13652, "30cm": 12850, "##68": 9105, "##产": 13829, "椅": 3488, "诤": 6420, "##兔": 14109, "##骤": 20809, "##龕": 21043, "验": 7741, "##種": 17991, "衙": 6126, "##hang": 11869, "##鈍": 20100, "攫": 3116, "##箋": 18101, "unity": 11897, "开": 2458, "かこさいます": 12835, "##②": 13557, "##∣": 13536, "##投": 15889, "##镇": 20309, "wilson": 12348, "慕": 2710, "全": 1059, "##梏": 16508, "##衙": 19183, "for": 8330, "##识": 19456, "塾": 1860, "ᵐ": 334, "况": 1105, "纠": 5272, "ted": 11398, "##櫥": 16662, "##gas": 12400, "##衛": 19184, "稍": 4924, "##as": 8576, "##urs": 11575, "gmt": 12828, "##琬": 17485, "耻": 5459, "裆": 6164, "##僭": 14072, "浩": 3856, "＾": 8048, "##3c": 12031, "switch": 10746, "擠": 3089, "##错": 20288, "兼": 1076, "##隈": 20442, "##鲱": 20894, "虑": 5991, "##﹝": 21066, "女": 1957, "##休": 13885, "##瑤": 17509, "羲": 5414, "##溝": 17035, "##膾": 18673, "##褚": 19247, "##完": 15187, "##陳": 20433, "62": 8356, "懿": 2760, "闵": 7314, "栀": 3399, "##てお": 12878, "畀": 4516, "1024": 11570, "積": 4948, "##跆": 19704, "遊": 6879, "##▃": 13598, "##返": 19876, "荏": 5772, "##ˍ": 13375, "##碼": 17883, "##⑵": 13567, "底": 2419, "糰": 5141, "nbsp": 8400, "national": 9385, "##個": 14000, "##淀": 16952, "##飙": 20661, "##world": 10120, "##ｽ": 21113, "bit": 10425, "鑼": 7147, "##肩": 18561, "##嘆": 14704, "##签": 18098, "021": 10385, "##衝": 19185, "栓": 3410, "怼": 2601, "慘": 2711, "懷": 2755, "碘": 4814, "##board": 9472, "##棧": 16537, "##缅": 18404, "##闔": 20355, "432": 13133, "传": 837, "廠": 2449, "##剷": 14259, "苹": 5741, "煥": 4210, "##认": 19428, "构": 3354, "asus": 9300, "##矚": 17813, "機": 3582, "ᄉ": 296, "##缈": 18407, "覓": 6212, "罷": 5394, "獐": 4355, "鹘": 7908, "##笋": 18065, "3600": 10517, "佯": 879, "##薇": 19005, "acer": 10837, "貧": 6514, "頂": 7515, "膈": 5599, "賂": 6533, "ly": 13252, "腆": 5570, "俳": 937, "蚵": 6023, "龈": 7979, "涧": 3884, "she": 9374, "##jiang": 12950, "##倍": 14002, "##慧": 15773, "momo": 8534, "##茭": 18814, "##鼠": 21019, "靡": 7480, "418": 12978, "腻": 5594, "guest": 12901, "orange": 13295, "霓": 7456, "##誘": 19351, "hit": 10295, "圜": 1758, "遞": 6894, "饯": 7651, "##lace": 12545, "##may": 11924, "15058": 12347, "缄": 5346, "∣": 384, "耐": 5447, "pin": 11328, "##痈": 17626, "嬤": 2085, "##陟": 20423, "1919": 9915, "##紐": 18210, "##銬": 20130, "920": 11976, "##绾": 18400, "嘰": 1670, "擺": 3099, "淮": 3917, "##17": 8408, "叩": 1371, "蹂": 6685, "炽": 4160, "莠": 5807, "##h": 8199, "##ニ": 13689, "殼": 3670, "##綢": 18257, "##获": 18872, "##褓": 19245, "触": 6239, "脲": 5565, "##ish": 10574, "##煩": 17271, "橇": 3577, "##28": 8835, "##将": 15256, "～～～": 9626, "##渤": 17000, "##ox": 9747, "祟": 4869, "##蟀": 19148, "脓": 5555, "溱": 3986, "##妇": 15024, "堅": 1830, "516": 12635, "##崴": 15368, "命": 1462, "##甬": 17560, "##fly": 11983, "#": 108, "##穿": 18016, "烂": 4162, "##仇": 13847, "漉": 4025, "4399": 9922, "dm": 10442, "摊": 3033, "edge": 9720, "贾": 6593, "##tz": 10228, "戍": 2765, "left": 12744, "##་": 13452, "##残": 16712, "##肮": 18563, "铨": 7205, "##没": 16823, "##渚": 16994, "##謗": 19396, "律": 2526, "152": 9653, "さい": 9728, "##灑": 17177, "缨": 5366, "陷": 7379, "style": 8969, "camera": 11519, "##遴": 19961, "##雞": 20487, "##牠": 17341, "van": 9933, "##馀": 20720, "406": 12563, "##恨": 15673, "阈": 7328, "鹞": 7910, "##ni": 8833, "##濟": 17146, "41": 8245, "棋": 3470, "糕": 5130, "##ｎ": 11977, "##啟": 14621, "砼": 4792, "##匾": 14336, "韭": 7508, "尕": 2210, "ce": 10399, "ｆ": 8056, "什": 784, "frigidaire": 12304, "##齁": 21024, "jpg": 9248, "##契": 15000, "胆": 5519, "x86": 10652, "葵": 5878, "奧": 1953, "##箸": 18115, "##髻": 20832, "剷": 1202, "吡": 1414, "##薹": 19020, "碟": 4817, "##篩": 18129, "拼": 2894, "##夷": 14986, "##輿": 19805, "##阙": 20393, "彎": 2494, "澱": 4077, "mb": 9499, "抒": 2830, "gaming": 12444, "##☞": 13621, "november": 9756, "##og": 10800, "travel": 9819, "##傩": 14054, "##愍": 15748, "计": 6369, "##陸": 20437, "##驿": 20788, "##テ": 11903, "##凄": 14170, "檬": 3597, "##剧": 14253, "##圆": 14806, "##夺": 14989, "##驗": 20767, "稹": 4939, "ces": 9818, "辜": 6790, "秣": 4910, "##衣": 19189, "##攣": 16169, "氾": 3721, "##鹹": 20976, "金": 7032, "##臬": 18690, "圩": 1763, "nova": 11660, "阚": 7337, "儉": 1025, "##製": 19239, "##｡": 21103, "##霾": 20524, "疳": 4559, "鐮": 7133, "丸": 709, "##ave": 12529, "##上": 13734, "##多": 14971, "34e": 11614, "207": 10194, "樹": 3572, "##ug": 11838, "77": 8411, "##ision": 12556, "md": 11399, "##匙": 14324, "﹝": 8009, "莱": 5812, "##再": 14143, "鎬": 7119, "##渊": 16986, "bot": 11825, "##相": 17742, "##45": 9039, "酶": 6998, "親": 6217, "age": 12162, "skin": 12479, "##渾": 17011, "莅": 5797, "##ような": 10895, "##框": 16484, "##蔷": 18982, "燊": 4238, "##jia": 12489, "蒟": 5888, "咻": 1497, "涝": 3876, "##ᅴ": 13483, "只": 1372, "閨": 7286, "##奔": 15001, "##浩": 16913, "##称": 17974, "##磐": 17889, "洄": 3816, "fps": 11671, "##戟": 15833, "##扶": 15877, "##邬": 19990, "##甥": 17555, "[unused28]": 28, "##﹍": 21055, "備": 991, "缭": 5369, "pay": 9452, "1234": 10343, "縮": 5240, "書": 3292, "魄": 7790, "侄": 888, "candy": 10653, "麻": 7937, "盞": 4672, "##欺": 16676, "妨": 1981, "砷": 4789, "鬥": 7784, "##嚎": 14760, "##2f": 12971, "archives": 12318, "は": 562, "應": 2746, "spark": 11134, "愉": 2690, "膳": 5612, "##ira": 11630, "緩": 5227, "曖": 3281, "##鋼": 20143, "kiss": 11192, "##擰": 16151, "##逻": 19929, "##昏": 16267, "##归": 15552, "宪": 2150, "甥": 4498, "share": 8697, "##虢": 19056, "##谓": 19515, "##泾": 16871, "##霆": 20504, "55": 8222, "##眸": 17761, "##喆": 14645, "建": 2456, "渣": 3942, "置": 5390, "##犯": 17363, "##ider": 11292, "##cil": 11783, "蛊": 6027, "##のに": 12813, "##証": 19321, "##╱": 13595, "灾": 4135, "杯": 3344, "##fa": 9777, "##姝": 15060, "2600": 10496, "涿": 3894, "##葫": 18929, "##麼": 20995, "烦": 4172, "砒": 4776, "賦": 6548, "閏": 7276, "tt": 10333, "痈": 4569, "women": 12912, "##烛": 17226, "##睿": 17786, "##篝": 18125, "##訟": 19310, "lu": 12015, "##ᆺ": 13486, "gr2": 9293, "厕": 1329, "ktv": 8894, "chen": 9798, "##嘛": 14715, "ア": 589, "##⒊": 13573, "咪": 1488, "攏": 3103, "##end": 11652, "湘": 3960, "们": 812, "钵": 7181, "##d": 8168, "##労": 14285, "##吭": 14478, "##ible": 12413, "##窩": 18036, "##⒋": 13574, "##曉": 16337, "颧": 7590, "栩": 3414, "孺": 2120, "税": 4925, "traction": 12600, "责": 6569, "违": 6824, "##ku": 9547, "哌": 1509, "1926": 10126, "##■": 10819, "筐": 5028, "labels": 11562, "##環": 17529, "##菘": 18887, "為": 4158, "变": 1359, "貼": 6528, "film": 11149, "##陇": 20413, "rq": 11635, "##飘": 20660, "##≤": 13545, "##﹗": 21063, "葦": 5870, "⑵": 416, "嘎": 1652, "erp": 9529, "q4": 11625, "皆": 4639, "##ries": 11665, "暧": 3269, "踪": 6679, "lulu": 11970, "##贖": 19619, "璞": 4468, "邂": 6915, "銓": 7069, "餚": 7627, "##鱈": 20875, "##冀": 14135, "##low": 10962, "##rss": 12281, "##颁": 20619, "##茎": 18806, "##罩": 18445, "咩": 1487, "婪": 2046, "all": 8513, "##崇": 15357, "##烏": 17223, "##氦": 16765, "##賓": 19597, "##nger": 11533, "emma": 12111, "##佔": 13918, "link": 9025, "##袪": 19214, "τ": 227, "婦": 2044, "袅": 6148, "##脅": 18602, "##诃": 19453, "focus": 11452, "tvbs": 11657, "##客": 15202, "増": 1868, "##呋": 14498, "##氮": 16770, "##扇": 15851, "dha": 11015, "▼": 468, "##晤": 16302, "##揄": 16042, "##煮": 17272, "霏": 7454, "rosie": 10487, "睡": 4717, "100ml": 11282, "诋": 6403, "tree": 10934, "system": 8566, "##拂": 15912, "≒": 392, "刨": 1163, "璧": 4470, "虧": 6000, "##宸": 15215, "2～3": 10282, "echo": 11701, "騁": 7696, "mastercard": 9841, "涪": 3887, "cn": 8274, "##顏": 20599, "参": 1346, "##磡": 17892, "##酝": 20043, "蓓": 5903, "18": 8123, "た": 551, "anne": 12860, "##gi": 10006, "証": 6264, "17": 8126, "々": 513, "years": 8753, "痙": 4577, "稚": 4928, "##ive": 8857, "##國": 14808, "##艹": 18742, "2016": 8112, "衡": 6130, "朐": 3303, "馮": 7681, "袜": 6154, "##艦": 18734, "##雛": 20485, "##彅": 15547, "##91": 9332, "##謀": 19388, "##獒": 17413, "##泓": 16847, "称": 4917, "##凯": 14189, "##嘉": 14706, "顼": 7558, "荡": 5782, "##加": 14274, "##蒞": 18944, "american": 9735, "顯": 7549, "##掠": 16023, "咄": 1466, "##渣": 16999, "##ber": 8956, "##nts": 12585, "乞": 737, "##ui": 9273, "##ぃ": 13668, "膘": 5603, "##鰻": 20873, "##✈": 13632, "妄": 1965, "##孽": 15178, "##鏢": 20186, "妮": 1984, "豢": 6497, "##蟒": 19154, "##暱": 16330, "##隆": 20441, "##庶": 15490, "淼": 3925, "##榮": 16589, "總": 5244, "hk": 8512, "##券": 14228, "讀": 6364, "##berry": 10793, "桃": 3425, "##詣": 19331, "鬟": 7781, "苑": 5723, "##芮": 18764, "ufo": 10012, "1984": 8655, "１３": 12911, "鈪": 7050, "2012": 8151, "will": 9339, "灵": 4130, "eq": 11601, "惠": 2669, "##塘": 14908, "evernote": 13138, "##洙": 16877, "贩": 6575, "##宾": 15218, "##烧": 17230, "肘": 5495, "瘍": 4598, "麵": 7934, "wikipedia": 11850, "##亲": 13836, "##帮": 15433, "##狀": 17368, "ᵉ": 331, "{": 169, "64": 8308, "##虑": 19048, "##闲": 20369, "颢": 7587, "矶": 4768, "##骯": 20813, "30": 8114, "糬": 5139, "##中": 13761, "##椋": 16546, "[CLS]": 101, "##勻": 14312, "་": 286, "犒": 4302, "覚": 6214, "##鎮": 20177, "瓊": 4475, "蓑": 5902, "縄": 5234, "##kg": 8714, "蹑": 6692, "zero": 10397, "##lp": 10986, "ebd": 8539, "##dget": 11857, "##夥": 14976, "慧": 2716, "##晔": 16294, "赓": 6607, "##祿": 17936, "条": 3340, "醛": 7010, "殺": 3669, "##右": 14438, "##巔": 15390, "锐": 7229, "plaza": 11767, "jose": 12606, "##撓": 16112, "负": 6566, "##潘": 17107, "##日": 16246, "御": 2539, "##建": 15513, "ips": 10511, "##笏": 18066, "day": 8542, "##在": 14819, "##輕": 19795, "哩": 1524, "纓": 5268, "##ss": 8565, "沉": 3756, "and": 8256, "砾": 4793, "甲": 4508, "施": 3177, "皋": 4642, "##mo": 8788, "##匣": 14328, "法": 3791, "补": 6133, "##呈": 14496, "##拼": 15951, "##荧": 18843, "拔": 2869, "熠": 4226, "##廈": 15498, "##蜴": 19119, "镁": 7250, "しており": 12340, "##自": 18689, "瀚": 4108, "##ino": 9846, "与": 680, "腌": 5574, "毅": 3675, "now": 9666, "258": 10870, "喵": 1611, "镗": 7260, "眠": 4697, "##挟": 15968, "special": 9969, "##浑": 16904, "##湘": 17017, "##巧": 15398, "##蓼": 18967, "##蘇": 19036, "##裱": 19234, "##遂": 19933, "賤": 6547, "##锌": 20284, "赫": 6622, "阇": 7327, "受": 1358, "iv": 10573, "鳴": 7855, "##色": 18739, "镉": 7253, "##吋": 14454, "/": 120, "##lia": 10336, "嘜": 1659, "##镜": 20319, "##鱷": 20879, "秃": 4901, "##撫": 16119, "尘": 2212, "鄲": 6975, "鍋": 7102, "俬": 932, "戲": 2783, "##丧": 13757, "##☺": 13622, "##冏": 14144, "戻": 2789, "験": 7699, "teddy": 12764, "桂": 3424, "銜": 7072, "ｚ": 8076, "##ｙ": 12166, "##ㄅ": 13705, "##稚": 17985, "##颚": 20637, "##齊": 21025, "蜗": 6054, "骼": 7761, "桔": 3435, "惭": 2677, "肚": 5496, "##臍": 18681, "幂": 2386, "遏": 6883, "fbi": 9711, "2100": 10247, "##庹": 15493, "##獭": 17418, "##翁": 18476, "庐": 2416, "菽": 5840, "疾": 4565, "九": 736, "買": 6525, "##谭": 19535, "##逗": 19913, "double": 11255, "##六": 14120, "65": 8284, "1400": 9439, "##oz": 13102, "##终": 18360, "袈": 6149, "##驍": 20764, "##bin": 10448, "zara": 10464, "##site": 11479, "痧": 4584, "诰": 6429, "##波": 16854, "##炷": 17212, "##配": 20038, "湿": 3969, "擀": 3074, "##譚": 19411, "##宠": 15200, "抉": 2827, "宛": 2138, "392": 12254, "com": 8134, "##像": 14065, "dram": 10664, "葡": 5868, "leonnhurt": 13160, "##賃": 19591, "迟": 6826, "真": 4696, "撲": 3067, "##嫌": 15123, "##去": 14400, "##颶": 20652, "##詰": 19338, "##麩": 20989, "儒": 1027, "19": 8131, "##42": 9240, "##跑": 19708, "鋼": 7086, "##龋": 21038, "##沉": 16813, "ぬ": 559, "橱": 3586, "sk": 9820, "wii": 11372, "##挡": 15970, "##誼": 19366, "中": 704, "呕": 1445, "##脱": 18621, "##咘": 14535, "▲topjul": 10572, "##精": 18182, "栈": 3404, "##舌": 18706, "##俸": 13995, "サ": 603, "翳": 5434, "в": 235, "wali": 10736, "30g": 12008, "笞": 5014, "紳": 5170, "##谦": 19529, "菁": 5821, "滂": 3992, "sun": 8482, "##徹": 15606, "##錢": 20149, "胝": 5527, "##任": 13875, "##繫": 18315, "奪": 1954, "陲": 7375, "##gb": 9673, "##tation": 12386, "宋": 2129, "しく": 9859, "##ます": 8643, "のこ": 13016, "##み": 9344, "と": 556, "##nes": 10107, "##什": 13841, "瑰": 4456, "ม": 279, "372": 12607, "れ": 581, "##厝": 14389, "##蠟": 19166, "##塵": 14916, "into": 12609, "尻": 2224, "##蘿": 19044, "诏": 6405, "##煊": 17258, "##鮑": 20857, "sweet": 10598, "##姚": 15058, "##談": 19369, "##逍": 19907, "祂": 4855, "失": 1927, "7x24": 12486, "##渦": 17002, "汤": 3739, "366": 11949, "##正": 16690, "鴕": 7858, "246": 11003, "孙": 2101, "##涪": 16944, "##肚": 18553, "[unused44]": 44, "武": 3636, "猫": 4344, "詩": 6276, "00kg": 10501, "##捲": 16004, "劫": 1223, "css3": 10760, "##洁": 16872, "##舛": 18714, "##➤": 13643, "擔": 3085, "趵": 6641, "##泼": 16869, "##跷": 19722, "拦": 2882, "粼": 5123, "耋": 5444, "##▫": 13608, "诽": 6439, "##ⅲ": 13521, "##鷗": 20932, "##污": 16795, "##肱": 18565, "health": 10168, "##酩": 20047, "遨": 6899, "##62": 9290, "##攙": 16164, "##攪": 16172, "##饞": 20701, "啤": 1566, "运": 6817, "##楽": 16575, "鞠": 7495, "397": 12591, "縷": 5243, "荧": 5786, "煌": 4202, "普": 3249, "##sp": 10367, "mate": 10577, "503": 12929, "敌": 3127, "googlemsn": 12046, "誘": 6294, "privacy": 8677, "##ide": 9552, "##fr": 13245, "め": 570, "##僻": 14077, "##来": 16398, "##rain": 11944, "347": 12936, "##拭": 15944, "幸": 2401, "##榭": 16588, "##郊": 20003, "##风": 20656, "##格": 16476, "旭": 3195, "##晟": 16301, "##挑": 15961, "##鏽": 20188, "竖": 4990, "455": 12404, "楽": 3518, "詫": 6277, "##寐": 15226, "##監": 17732, "吒": 1404, "##49": 9500, "陶": 7378, "ta": 8346, "##遨": 19956, "50mm": 11774, "～5": 11980, "盱": 4682, "颈": 7568, "write": 12800, "レ": 638, "撬": 3063, "绽": 5342, "銅": 7067, "##50": 8474, "わせ": 11878, "寂": 2163, "瀉": 4102, "wish": 12255, "##勺": 14311, "##咫": 14546, "b3": 12790, "✿": 504, "5mm": 9394, "029": 12801, "胄": 5518, "virtual": 12997, "##竿": 18061, "##睥": 17777, "扭": 2814, "204": 10080, "##桥": 16498, "##芷": 18768, "爲": 4264, "##茧": 18810, "咀": 1463, "a5": 10796, "##糞": 18192, "airport": 11435, "##pper": 11413, "##测": 16901, "mk": 11629, "##坞": 14840, "##酷": 20056, "莢": 5808, "嵊": 2314, "瘙": 4601, "##ung": 9112, "牌": 4277, "magic": 10328, "##堀": 14884, "##庄": 15468, "煦": 4211, "fks": 10044, "508": 12328, "dom": 11183, "##pc": 10022, "津": 3823, "##娲": 15089, "##節": 18116, "溟": 3979, "##颛": 20638, "##钗": 20215, "斑": 3157, "王": 4374, "##缆": 18405, "##nse": 10996, "##総": 18274, "##曠": 16342, "##译": 19463, "撷": 3069, "##✰": 13639, "坳": 1792, "軌": 6724, "francis": 13134, "##戶": 15843, "##闆": 20350, "郫": 6957, "touch": 8915, "apps": 11006, "物": 4289, "##94": 9723, "臺": 5637, "廊": 2443, "堵": 1843, "ー": 645, "ての": 9697, "搖": 3015, "跋": 6648, "##g": 8181, "觎": 6232, "唆": 1534, "515": 13196, "##羽": 18474, "##辉": 19835, "籮": 5099, "##霞": 20516, "xbox": 9077, "绾": 5343, "辈": 6777, "列": 1154, "##螃": 19140, "蜿": 6065, "##俳": 13994, "捷": 2949, "##傭": 14056, "##堵": 14900, "##萸": 18917, "charlie": 12962, "##zy": 9748, "20mm": 12714, "舟": 5660, "##％": 21074, "処": 1129, "を": 584, "##哩": 14581, "##watch": 9907, "##敵": 16204, "jul": 9618, "##晞": 16300, "ky": 11096, "##史": 14437, "##隴": 20461, "凑": 1122, "²": 182, "扯": 2816, "猕": 4334, "⦿": 509, "buffet": 11637, "##辯": 19857, "##🔥": 21125, "盯": 4681, "##瞳": 17806, "##先": 14101, "##戊": 15820, "##茂": 18801, "##柑": 16436, "rewards": 10197, "嬿": 2091, "lifestyle": 12996, "稿": 4943, "##泫": 16859, "##禄": 17939, "##绳": 18391, "##瞌": 17791, "##迈": 19872, "堂": 1828, "嗑": 1622, "墀": 1861, "##儆": 14081, "##具": 14129, "ᵘ": 336, "铲": 7211, "##贡": 19624, "衛": 6127, "柄": 3376, "跪": 6661, "##夏": 14966, "嘗": 1655, "灬": 4126, "碛": 4816, "🔥": 8103, "1999": 8338, "##天": 14978, "##鐲": 20191, "##颳": 20651, "癫": 4626, "囚": 1723, "##澈": 17126, "demo": 10828, "活": 3833, "##摁": 16085, "##蠔": 19163, "红": 5273, "輻": 6746, "##76": 9624, "慄": 2704, "宁": 2123, "涔": 3872, "陞": 7365, "##fu": 12043, "##ﾝ": 21119, "匣": 1271, "闻": 7319, "唷": 1550, "2013": 8138, "覇": 6209, "[unused93]": 93, "##瑰": 17513, "##頡": 20585, "楫": 3510, "328": 11580, "婀": 2036, "きなしソフトサーヒス": 11811, "silver": 13230, "##係": 13970, "##復": 15598, "##烩": 17232, "[unused5]": 5, "fpga": 9724, "##雕": 20482, "##ε": 13384, "vivo": 9381, "榭": 3531, "富": 2168, "瞠": 4741, "粹": 5122, "116": 9070, "##串": 13763, "high": 8757, "鲷": 7840, "of": 8205, "₄": 358, "##丟": 13751, "##旖": 16242, "钟": 7164, "钻": 7183, "┌": 434, "克": 1046, "珀": 4391, "##熨": 17284, "##睞": 17773, "##窒": 18023, "##训": 19435, "##鷲": 20933, "松": 3351, "1tb": 12430, "##馔": 20730, "407": 12458, "澳": 4078, "##盱": 17739, "拧": 2883, "することかてきます": 11743, "珑": 4400, "1911": 10041, "##兌": 14104, "123": 8604, "##噴": 14752, "永": 3719, "鼐": 7960, "##藍": 19022, "ة": 263, "囹": 1742, "蚜": 6015, "##矶": 17825, "坝": 1782, "##ける": 11760, "##龚": 21045, "##nd": 8735, "檯": 3598, "##瘴": 17669, "##處": 19050, "痕": 4575, "贍": 6559, "潆": 4044, "##忆": 15611, "##媲": 15116, "ʰ": 200, "脘": 5557, "★★★": 10559, "##ize": 11789, "##詮": 19337, "##拉": 15918, "はすへて": 11899, "##don": 12107, "##讲": 19439, "##貅": 19561, "檜": 3595, "遥": 6898, "##旭": 16252, "##貴": 19580, "##间": 20370, "閣": 7284, "##jy": 13051, "抡": 2842, "譎": 6350, "銬": 7073, "1945": 8799, "獭": 4361, "齦": 7975, "茱": 5759, "蛟": 6034, "みてす": 11870, "##碉": 17864, "構": 3539, "默": 7949, "##澎": 17128, "屋": 2238, "##束": 16395, "xml": 9094, "##荫": 18846, "##幔": 15447, "##tle": 11283, "瞿": 4752, "彗": 2498, "ゃ": 572, "##ж": 13407, "##轴": 19823, "##兵": 14127, "##哀": 14557, "##该": 19478, "麂": 7923, "##采": 20080, "疝": 4548, "氏": 3694, "##mmy": 12137, "##础": 17851, "监": 4664, "##wt": 12271, "##ター": 10848, "stop": 11467, "##內": 14115, "##も": 8435, "##燔": 17298, "彅": 2490, "##ners": 12550, "##稻": 17997, "汗": 3731, "##漏": 17083, "ρ": 224, "##捨": 16000, "course": 12654, "##钴": 20237, "##哄": 14560, "##pin": 13248, "寨": 2181, "鵜": 7865, "##bb": 10214, "亿": 783, "##撿": 16130, "μ": 220, "##閒": 20335, "##斤": 16222, "##est": 10414, "zoom": 12356, "##諸": 19385, "柑": 3379, "鍛": 7104, "##skip": 12724, "##д": 13405, "##戀": 15818, "##掉": 16014, "##ury": 11117, "6l": 12061, "##頷": 20590, "莲": 5813, "◠": 476, "涼": 3893, "3": 124, "閩": 7287, "，": 8024, "##da": 8521, "1955": 9043, "##とても": 13211, "##蒸": 18949, "##蝦": 19133, "dec": 9333, "##ther": 10198, "桎": 3431, "厮": 1340, "稞": 4930, "鹂": 7897, "ios": 8276, "氖": 3699, "##llow": 11200, "##亳": 13837, "##簽": 18144, "戊": 2763, "590": 11210, "##rge": 10756, "##殖": 16715, "icloud": 12602, "语": 6427, "##哽": 14588, "赅": 6599, "##视": 19285, "##彪": 15564, "kic": 11687, "ャ": 629, "坂": 1771, "law": 11353, "##賁": 19589, "漯": 4037, "##鉚": 20117, "##iki": 12434, "##cast": 13020, "##枷": 16431, "痤": 4583, "诿": 6441, "醪": 7014, "421": 12873, "猴": 4347, "##各": 14449, "##芋": 18749, "kit": 12788, "83": 8466, "##嫉": 15122, "鞘": 7494, "##旬": 16251, "诣": 6419, "##漿": 17100, "3ce": 10183, "咱": 1493, "競": 5000, "##肄": 18542, "1917": 10199, "衬": 6137, "简": 5042, "覷": 6220, "care": 10614, "##襲": 19261, "詞": 6270, "##阈": 20385, "our": 11052, "##ad": 8695, "##夾": 14990, "息": 2622, "##慵": 15779, "##猖": 17392, "##駱": 20751, "linux": 8403, "##舜": 18715, "##浇": 16899, "##黜": 21008, "##悖": 15695, "##畦": 17584, "厄": 1323, "鄰": 6973, "鹽": 7921, "##恼": 15687, "們": 947, "##占": 14361, "##hing": 10716, "##燦": 17304, "禧": 4889, "##鯉": 20862, "##翠": 18485, "銮": 7075, "##怔": 15642, "瀞": 4111, "080": 12365, "##dp": 11497, "##嘎": 14709, "##恳": 15681, "國": 1751, "##mber": 10494, "##vas": 12239, "岙": 2268, "叔": 1356, "叭": 1375, "dji": 12093, "庫": 2430, "虞": 5997, "社": 4852, "芸": 5712, "鹳": 7917, "ル": 637, "稅": 4922, "[unused31]": 31, "哧": 1522, "##币": 15412, "##017": 8710, "##罕": 18440, "##锣": 20293, "捻": 2951, "1974": 9072, "happy": 9200, "##吗": 14465, "況": 3785, "┆": 432, "838": 11462, "複": 6185, "本": 3315, "##呼": 14518, "##喪": 14660, "##诞": 19471, "珍": 4397, "##刍": 14207, "##駝": 20749, "徙": 2535, "惫": 2675, "##侑": 13951, "##担": 15914, "¥": 175, "003": 11400, "荒": 5774, "##え": 11661, "潦": 4057, "##劉": 14265, "##蟾": 19160, "##鲲": 20895, "##藓": 19025, "囑": 1720, "##かり": 11554, "篠": 5069, "access": 11098, "##93": 9676, "腊": 5572, "##唁": 14589, "##徜": 15593, "##援": 16058, "##嬌": 15138, "確": 4825, "繆": 5248, "##片": 17332, "##vr": 10131, "##垦": 14862, "##奄": 14992, "##纪": 18336, "##cm": 8341, "sir": 10171, "##遽": 19968, "##径": 15577, "睨": 4722, "##≒": 13543, "咲": 1494, "##たい": 10722, "oculus": 10480, "chang": 11680, "弓": 2469, "较": 6772, "ice": 10490, "廢": 2450, "鳩": 7853, "##涙": 16931, "瘋": 4597, "『": 521, "赭": 6623, "trc": 11885, "##谒": 19514, "##瓦": 17539, "##ュ": 13697, "south": 10801, "##伍": 13881, "##瓊": 17532, "feel": 11297, "##ull": 12316, "勉": 1236, "##碱": 17879, "##窑": 18022, "1927": 9620, "围": 1741, "something": 12713, "##棕": 16530, "奕": 1945, "##挣": 15971, "瀑": 4105, "70": 8203, "via": 10003, "##腕": 18637, "##虚": 19051, "峯": 2291, "诚": 6411, "掌": 2958, "##弛": 15531, "##ことか": 10274, "崗": 2305, "##薦": 19013, "##跃": 19702, "##hs": 9551, "##丙": 13745, "藝": 5971, "募": 1247, "##sy": 10178, "续": 5330, "##⌒": 13555, "焖": 4186, "婊": 2040, "##とう": 12471, "##煙": 17263, "##栋": 16463, "邏": 6922, "桩": 3445, "连": 6825, "##com": 9479, "ы": 257, "positioning": 11187, "1010": 13266, "唑": 1539, "茄": 5746, "跃": 6645, "plus": 8514, "##并": 15457, "纪": 5279, "##铺": 20272, "m4": 11964, "##之": 13779, "##mand": 12131, "濫": 4093, "侮": 907, "卻": 1320, "橫": 3585, "痠": 4580, "##瑶": 17514, "锤": 7237, "##濱": 17154, "歴": 3643, "##茴": 18818, "fashion": 9522, "##缥": 18422, "潼": 4065, "shi": 11772, "##党": 14111, "##邋": 19978, "控": 2971, "1973": 9062, "爷": 4267, "##しています": 12478, "[unused99]": 99, "##侦": 13960, "##擢": 16148, "##黄": 20999, "bytes": 10599, "##揮": 16057, "1896": 11833, "徊": 2525, "##簾": 18145, "##讴": 19441, "##ward": 11612, "##撃": 16105, "##鄙": 20025, "##盐": 17720, "##矽": 17826, "##替": 16353, "台": 1378, "胰": 5536, "##琳": 17489, "woshipm": 9712, "##趵": 19698, "幢": 2394, "史": 1380, "しているから": 12004, "##噌": 14737, "##廂": 15496, "ゝ": 587, "##钟": 20221, "榜": 3528, "##サー": 12636, "cbs": 13035, "##顿": 20618, "##ren": 9489, "##迺": 19897, "##shop": 10940, "恐": 2607, "##蝇": 19123, "铁": 7188, "##＂": 21071, "▲topfeb": 10663, "廚": 2446, "無": 4192, "ﾙ": 8096, "1966": 9093, "朵": 3321, "☆☆☆": 12201, "##yo": 10222, "牲": 4291, "##哺": 14586, "确": 4802, "♣": 490, "##reen": 10902, "##噎": 14738, "##暢": 16325, "##hn": 11781, "##厦": 14393, "##禍": 17941, "##●": 9037, "##亥": 13827, "##龄": 21034, "してくたさい♪この": 12151, "##015": 8851, "##峨": 15345, "##熄": 17276, "酰": 6995, "b": 144, "##hi": 8963, "斧": 3167, "##⒉": 13572, "##挙": 15963, "图": 1745, "鎚": 7117, "##84": 9545, "##擒": 16141, "沂": 3752, "##船": 18727, "##嬴": 15145, "啉": 1556, "##損": 16067, "躲": 6719, "造": 6863, "##犁": 17355, "##禧": 17946, "羿": 5418, "撚": 3057, "盜": 4671, "##屢": 15307, "##殉": 16710, "兴": 1069, "断": 3171, "##aid": 11791, "##姐": 15052, "蜀": 6043, "##ᅪ": 13476, "苕": 5727, "msn": 8804, "歲": 3641, "##堅": 14887, "叻": 1387, "阡": 7340, "ⅳ": 366, "雇": 7416, "##rent": 10858, "##測": 17004, "##猗": 17393, "盡": 4674, "##ld": 8635, "##嫡": 15129, "２０": 10327, "揣": 2996, "虚": 5994, "##ｃ": 10675, "婁": 2037, "ofo": 9574, "岌": 2261, "##凛": 14180, "憐": 2730, "##吝": 14467, "##仟": 13863, "享": 775, "蕊": 5934, "鍺": 7108, "##秘": 17965, "weeks": 11973, "##剽": 14260, "##恁": 15659, "##贛": 19620, "cp": 8337, "donald": 9635, "##bc": 9242, "##溥": 17038, "chicken": 12285, "es": 11696, "##寥": 15235, "##挾": 15982, "##顎": 20598, "##か": 8261, "##缭": 18426, "vera": 9378, "航": 5661, "children": 12981, "嚓": 1706, "绔": 5311, "蒿": 5896, "2014": 8127, "##平": 15455, "力": 1213, "536": 12904, "##豈": 19545, "##徬": 15600, "竽": 5003, "##撑": 16110, "etc": 9813, "use": 11927, "剜": 1191, "##溴": 17044, "##贅": 19613, "##^": 13342, "[unused97]": 97, "内": 1079, "晕": 3238, "tvb": 9312, "des": 11081, "##烦": 17229, "wedding": 10826, "睾": 4728, "##稅": 17979, "霭": 7461, "##驚": 20768, "鸪": 7889, "##箩": 18110, "併": 882, "総": 5217, "勇": 1235, "墻": 1878, "##类": 18159, "礁": 4842, "##爭": 17318, "戾": 2790, "insee": 11513, "##尊": 15260, "##芦": 18758, "ろ": 582, "ie": 8469, "峋": 2281, "173": 10020, "##兲": 14124, "tmt": 11920, "刈": 1148, "煽": 4218, "禛": 4887, "导": 2193, "痘": 4576, "1995": 8396, "626": 12463, "##元": 14096, "##厢": 14391, "##夹": 14988, "##柔": 16439, "##轭": 19818, "place": 10963, "r9": 12674, "128": 8848, "queen": 11032, "穩": 4952, "marc": 11511, "##吧": 14473, "##埵": 14878, "##咸": 14553, ">": 135, "1946": 9120, "价": 817, "##泞": 16851, "##仁": 13842, "##歯": 16697, "霉": 7450, "傣": 994, "##諭": 19380, "##=": 13335, "咧": 1485, "埋": 1813, "功": 1216, "媾": 2062, "##╠": 13590, "##赐": 19663, "##ese": 9692, "##镂": 20308, "##伸": 13904, "430": 10352, "hero": 11673, "##踏": 19729, "##ع": 13434, "鏟": 7127, "獵": 4364, "峡": 2284, "巽": 2352, "##揣": 16053, "京": 776, "##擄": 16134, "ⓒ": 424, "膽": 5615, "##気": 16757, "sound": 12516, "391": 13092, "##毓": 16739, "湛": 3961, "諗": 6317, "捆": 2928, "穢": 4951, "鸽": 7894, "##嚣": 14766, "獒": 4356, "##吩": 14475, "##旮": 16253, "##mann": 10750, "level": 9888, "燈": 4236, "dance": 12371, "##蟠": 19155, "##侍": 13949, "俩": 930, "をこ": 10074, "msg": 10180, "##顯": 20606, "廖": 2445, "##衹": 19199, "##鲫": 20893, "塩": 1855, "sgs": 11357, "##鎖": 20172, "雯": 7435, "##捎": 15990, "##鉀": 20111, "棒": 3472, "粕": 5109, "井": 759, "books": 11280, "village": 12497, "##嘔": 14710, "##甄": 17545, "278": 11191, "##历": 14382, "##淆": 16955, "##菇": 18880, "##蒹": 18950, "##ｕ": 21098, "##办": 14272, "顧": 7547, "##亨": 13830, "##壊": 14941, "##戦": 15835, "##礫": 17905, "##钓": 20214, "蜓": 6052, "佗": 863, "33": 8226, "vs": 8349, "ups": 10846, "mama": 13186, "##噬": 14750, "##屉": 15293, "##tra": 9808, "##裔": 19224, "##頌": 20577, "##11": 8452, "乓": 729, "##ッ": 13688, "丼": 713, "##腭": 18642, "##蒐": 18940, "##轼": 19826, "戰": 2782, "port": 11311, "炉": 4140, "于": 754, "尤": 2215, "##勘": 14299, "980": 10536, "蹣": 6696, "friday": 11240, "##屄": 15289, "贝": 6564, "##萌": 18903, "a7": 11226, "##绛": 18373, "瓒": 4477, "##嘭": 14724, "##呵": 14514, "款": 3621, "daniel": 9701, "##獄": 17409, "樽": 3574, "##+": 13327, "##堇": 14889, "ィ": 590, "##谗": 19518, "房": 2791, "褲": 6194, "砸": 4790, "development": 12261, "##猿": 17408, "ｎ": 8064, "##醋": 20062, "private": 13233, "ゥ": 592, "root": 8859, "secret": 11634, "12000": 10520, "##筏": 18084, "钴": 7180, "謝": 6342, "instagram": 8780, "##█": 12740, "##却": 14373, "##職": 18537, "聯": 5474, "嗨": 1635, "pos": 9854, "##ｂ": 12641, "##蓉": 18957, "д": 237, "铺": 7215, "pm": 8397, "safari": 8580, "lohasthree": 11741, "##匯": 14331, "##帰": 15435, "##薬": 19017, "##＆": 21075, "##嘣": 14720, "##ala": 11658, "設": 6257, "##囹": 14799, "##杏": 16388, "skype": 9713, "##鹉": 20959, "##ことて": 11178, "##擴": 16154, "##43": 9433, "piece": 11446, "苁": 5717, "栾": 3421, "损": 2938, "aws": 12014, "禹": 4893, "煒": 4204, "】": 524, "##罂": 18434, "挺": 2923, "##cake": 12814, "夷": 1929, "##孫": 15170, "ᄃ": 291, "##還": 19974, "臾": 5640, "睏": 4711, "##冲": 14160, "##灸": 17189, "##フト": 10868, "uhz": 11599, "偽": 984, "晃": 3230, "觊": 6231, "##朴": 16377, "##tus": 10356, "##畏": 17576, "##瞠": 17798, "##痔": 17631, "sap": 11708, "剁": 1176, "265": 8689, "名": 1399, "染": 3381, "良": 5679, "mountain": 12482, "40": 8164, "dnf": 11315, "tag": 8801, "巍": 2331, "罗": 5384, "库": 2417, "##寰": 15243, "##﹙": 21064, "##某": 16435, "159": 9699, "npc": 9811, "##icon": 12829, "乗": 732, "##削": 14238, "敕": 3132, "薑": 5952, "htm": 9645, "ft": 12180, "ti": 9654, "噜": 1686, "##擋": 16138, "璽": 4473, "##煒": 17261, "马": 7716, "##缩": 18424, "屠": 2248, "##汙": 16789, "##340": 12149, "##sco": 11364, "##抠": 15898, "菓": 5828, "臊": 5623, "鋒": 7081, "##晨": 16304, "##童": 18054, "##肢": 18558, "嵘": 2318, "煖": 4205, "貝": 6509, "驀": 7704, "meta": 11799, "##润": 16940, "##务": 14275, "靶": 7487, "##筲": 18094, "崛": 2307, "镜": 7262, "１２": 10351, "##oud": 12867, "充": 1041, "灰": 4129, "eps": 9629, "8mm": 12964, "##163": 11631, "##议": 19436, "8591": 12376, "##憐": 15787, "##沃": 16810, "噸": 1697, "旷": 3199, "１８": 13218, "皖": 4646, "亙": 761, "##慚": 15769, "##ø": 13364, "۩": 275, "moto": 10429, "##me": 8505, "##ell": 9602, "##厚": 14388, "噌": 1680, "忱": 2572, "##滔": 17057, "##梶": 16522, "##ᄏ": 13466, "##焖": 17243, "york": 9507, "295": 11332, "##痼": 17650, "褥": 6191, "##脣": 18617, "蒼": 5895, "yahoo": 8497, "娩": 2030, "##廬": 15509, "側": 979, "汆": 3725, "##ball": 11050, "##抓": 15888, "1942": 9480, "薰": 5962, "##惟": 15725, "##砚": 17837, "##谙": 19520, "啫": 1571, "亞": 765, "bios": 9324, "##嵋": 15372, "峇": 2280, "##弧": 15536, "##馭": 20737, "绰": 5333, "履": 2252, "##咂": 14522, "##殲": 16722, "瓶": 4486, "籲": 5100, "mobil": 12572, "##准": 14171, "##厂": 14379, "##垢": 14860, "躇": 6709, "[unused80]": 80, "闸": 7316, "瑶": 4457, "##ces": 11463, "弗": 2472, "##秒": 17964, "联": 5468, "閎": 7275, "##ント": 10002, "嗲": 1640, "##以": 13866, "[unused20]": 20, "傀": 986, "少": 2208, "沸": 3778, "https": 8532, "##あなたに": 12774, "絢": 5182, "冰": 1102, "##减": 14178, "##只": 14429, "陰": 7374, "##埃": 14869, "##rey": 11492, "嬸": 2090, "##有": 16357, "##草": 18827, "##rence": 12743, "##ip": 9032, "##ort": 10143, "┣": 437, "澈": 4069, "麟": 7929, "##酮": 20050, "燭": 4249, "频": 7574, "291": 11777, "##璇": 17519, "回": 1726, "份": 819, "瓯": 4484, "##嗅": 14675, "##誦": 19358, "ョ": 633, "垠": 1802, "test": 10060, "畦": 4527, "delete": 12845, "siri": 10309, "顺": 7556, "你": 872, "拐": 2866, "业": 689, "human": 11913, "##嬪": 15143, "##驯": 20776, "##讓": 19423, "##花": 18766, "##儘": 14086, "##抖": 15890, "##沒": 16817, "##捕": 15993, "戶": 2786, "刪": 1165, "癸": 4631, "con": 11485, "##療": 17672, "##卑": 14349, "##铃": 20247, "æ": 192, "[unused23]": 23, "剩": 1197, "树": 3409, "髖": 7769, "畔": 4521, "怆": 2581, "孩": 2111, "ss": 10239, "##ᅧ": 13474, "よ": 577, "##晋": 16289, "##涧": 16941, "##烘": 17224, "##狐": 17373, "##盛": 17727, "##96": 9419, "##詢": 19330, "boss": 8445, "b1": 9338, "検": 3493, "450": 8802, "##哟": 14575, "##橙": 16638, "##風": 20648, "誦": 6301, "议": 6379, "##ット": 9187, "sogo": 10275, "贴": 6585, "炀": 4137, "##モ": 13694, "緝": 5222, "##樸": 16628, "坷": 1794, "禍": 4884, "##读": 19495, "拱": 2890, "##增": 14929, "road": 9772, "€": 359, "241": 10896, "憲": 2740, "camp": 12275, "##視": 19270, "##覺": 19278, "铢": 7202, "なし": 9930, "economy": 11250, "##呓": 14501, "##拳": 15948, "005": 11168, "##拽": 15952, "##枭": 16425, "##恭": 15678, "纺": 5293, "##脈": 18605, "ᆷ": 324, "囗": 1722, "##ron": 8991, "砗": 4779, "c919": 13136, "ن": 271, "鄙": 6968, "咐": 1472, "##崧": 15365, "##磕": 17890, "铀": 7187, "##闖": 20357, "餞": 7629, "##阎": 20387, "##↘": 13526, "液": 3890, "lee": 9058, "official": 12863, "##dragon": 12857, "##2008": 10545, "##懺": 15814, "sidebar": 11212, "##拮": 15945, "##榛": 16584, "##简": 18099, "##５": 8901, "##貝": 19566, "##傣": 14051, "battle": 12379, "##鯽": 20868, "##刺": 14230, "##ч": 13422, "強": 2485, "##1": 8148, "##尷": 15277, "##徠": 15595, "##溃": 17028, "違": 6889, "##坦": 14845, "##铡": 20258, "胞": 5528, "##嘚": 14714, "英": 5739, "##nap": 11546, "圧": 1761, "##臊": 18680, "##卵": 14374, "崩": 2309, "##橱": 16643, "捉": 2929, "##哐": 14570, "##嫖": 15126, "みリストを": 11196, "##ques": 12503, "##訥": 19312, "##尿": 15285, "##鐳": 20192, "轨": 6758, "##○": 10299, "##稱": 17992, "##仆": 13846, "秉": 4903, "檢": 3596, "##26": 8756, "##帜": 15426, "##沛": 16821, "##鋁": 20136, "##鑾": 20206, "耍": 5446, "助": 1221, "174": 10134, "w": 165, "｜": 8078, "鹿": 7922, "##©": 13278, "##蔽": 18986, "##饌": 20695, "##订": 19427, "##瀉": 17159, "dlc": 12439, "佛": 867, "谋": 6450, "association": 11549, "##皚": 17705, "暌": 3262, "##诱": 19487, "##乳": 13802, "##萝": 18907, "舫": 5662, "eco": 12791, "▃": 450, "radio": 11034, "##电": 17567, "央": 1925, "##斩": 16225, "順": 7518, "坨": 1789, "森": 3481, "##凤": 14185, "##滇": 17052, "##环": 17441, "頸": 7534, "##椭": 16552, "##喜": 14656, "iot": 9543, "芒": 5695, "嬛": 2083, "asr": 10335, "##矿": 17828, "##悯": 15705, "topios9": 12994, "「": 519, "wiki": 8548, "rx": 12342, "1918": 10106, "##槿": 16611, "[unused35]": 35, "##玠": 17436, "##竞": 18050, "2700": 10930, "##┅": 13312, "##邻": 20000, "##銅": 20124, "##ways": 11672, "##铁": 20245, "##an": 8244, "##娴": 15090, "##慨": 15774, "皮": 4649, "裱": 6177, "310": 9643, "讫": 6377, "##fc": 9717, "##珑": 17457, "##绮": 18388, "##規": 19268, "##ロ": 10068, "##郴": 20016, "稳": 4937, "##←": 13018, "##零": 20496, "##獰": 17419, "##春": 16274, "##ても": 10508, "円": 1080, "230": 9111, "妻": 1988, "神": 4868, "赎": 6604, "蹙": 6694, "##die": 11588, "沼": 3781, "neo": 12169, "##傳": 14058, "##mer": 9778, "##锡": 20291, "钡": 7166, "company": 10007, "##瞿": 17809, "##莴": 18871, "##区": 14334, "敘": 3135, "raw": 11265, "##粒": 18165, "蓿": 5911, "##aine": 12554, "##殇": 16709, "##甦": 17556, "pvc": 8656, "##蕈": 18989, "##緻": 18289, "##蒻": 18951, "##蟲": 19157, "##遍": 19938, "##魄": 20847, "h7n9": 10697, "##犧": 17361, "恿": 2631, "铰": 7210, "##tis": 10827, "##絲": 18244, "〃": 512, "##鍍": 20160, "##幀": 15442, "##种": 17962, "っています": 12202, "顽": 7559, "盐": 4663, "哏": 1512, "##⒈": 13571, "##赛": 19669, "##狞": 17377, "优": 831, "陵": 7377, "##所": 15849, "##袖": 19210, "[unused76]": 76, "##［": 21089, "##印": 14370, "##枝": 16420, "##澍": 17127, "靼": 7488, "database": 12435, "##鶘": 20928, "##➜": 13642, "来": 3341, "##錮": 20153, "臍": 5624, "荤": 5784, "##ｔ": 11766, "##[": 13339, "惧": 2672, "##妝": 15033, "yin": 13178, "##99": 8653, "##目": 17737, "屐": 2243, "##ース": 10840, "較": 6733, "##滬": 17071, "##簪": 18140, "牢": 4286, "##led": 10702, "骋": 7740, "##俞": 13982, "ᄈ": 295, "鐘": 7132, "##ｖ": 12420, "阕": 7334, "##涕": 16930, "##ない": 8560, "##西": 19262, "##匠": 14326, "媒": 2054, "##署": 18449, "佥": 876, "##¤": 13349, "sean": 12794, "##ito": 12899, "甬": 4503, "嘸": 1675, "媲": 2059, "ebay": 8886, "##恺": 15685, "##ene": 10600, "暸": 3275, "費": 6527, "##捍": 15989, "##晃": 16287, "龕": 7986, "##拐": 15923, "p1": 11020, "##〓": 13660, "##暌": 16319, "##歲": 16698, "##р": 13415, "実": 2142, "##聲": 18533, "請": 6313, "##劏": 14268, "##记": 19438, "oracle": 10085, "筛": 5033, "ｃ": 8053, "matlab": 12640, "##匐": 14320, "##厩": 14395, "小": 2207, "##嘧": 14722, "##允": 14095, "##抬": 15905, "##染": 16438, "##赂": 19653, "◤": 478, "gopro": 13176, "##脳": 18623, "##！": 21070, "##禪": 17947, "##簸": 18143, "##瀆": 17158, "轄": 6749, "##晝": 16299, "##離": 20488, "297": 11992, "##膩": 18668, "挈": 2901, "潟": 4054, "##楨": 16566, "朝": 3308, "跹": 6666, "isis": 11709, "##志": 15619, "##椒": 16549, "##炳": 17211, "○": 472, "##秤": 17968, "##秋": 17961, "tiger": 12088, "骑": 7744, "##蠡": 19167, "兇": 1043, "##薙": 19011, "2010": 8166, "##觑": 19291, "摘": 3036, "kids": 11826, "##耒": 18505, "樣": 3564, "##land": 8789, "spa": 8509, "礎": 4843, "##私": 17957, "##旷": 16256, "##cam": 12438, "恰": 2623, "捶": 2948, "迤": 6828, "373": 12779, "sata": 11535, "06": 8116, "酪": 6991, "ر": 266, "緹": 5231, "ц": 254, "gre": 10771, "蔵": 5924, "ф": 252, "##lus": 11131, "##陕": 20419, "嫉": 2065, "##偷": 14039, "##抵": 15907, "柔": 3382, "##頂": 20572, "米": 5101, "追": 6841, "##几": 14183, "##ett": 13151, "h2": 12212, "歩": 3638, "##限": 20418, "##芾": 18773, "孚": 2102, "皱": 4651, "ｙ": 8075, "##佟": 13928, "タ": 608, "##浦": 16912, "ェ": 594, "吾": 1434, "爆": 4255, "rock": 10092, "670": 11807, "##基": 14882, "##淚": 16964, "##笠": 18072, "society": 11573, "540": 10972, "吱": 1424, "##旌": 16239, "長": 7269, "opec": 9416, "##过": 19871, "##耦": 18510, "##映": 16273, "闢": 7304, "##なります": 11293, "##dra": 12753, "觀": 6223, "adsense": 11317, "##♂": 13625, "査": 3397, "轆": 6751, "趴": 6640, "##ment": 8631, "蕪": 5940, "##伕": 13886, "##瑞": 17505, "##ょう": 11663, "##rix": 13208, "呢": 1450, "##ure": 8813, "正": 3633, "濠": 4090, "##励": 14282, "##卻": 14377, "justin": 11889, "苒": 5724, "します": 8845, "赡": 6616, "unit": 12816, "##ひ": 11224, "xuite": 13194, "##嗲": 14697, "餵": 7633, "##递": 19910, "ɔ": 197, "缓": 5353, "##睜": 17772, "##羧": 18467, "##讽": 19448, "##€": 13517, "##额": 20640, "##├": 13584, "##街": 19182, "鏈": 7122, "##ist": 9527, "もちろん": 12868, "595": 13302, "##tty": 11160, "##洽": 16892, "##颧": 20647, "砚": 4780, "礼": 4851, "習": 5424, "准": 1114, "餛": 7628, "hitachi": 12294, "兽": 1077, "绫": 5329, "##婵": 15106, "##柏": 16434, "瘾": 4614, "##醯": 20075, "##sion": 9224, "nasa": 9334, "##鹦": 20969, "##岚": 15326, "##揭": 16056, "##徨": 15597, "##豚": 19552, "##鋤": 20139, "牆": 4274, "82": 8460, "mega": 12908, "##頻": 20593, "故": 3125, "q": 159, "蜈": 6048, "れた": 13163, "215": 10082, "##软": 19820, "##the": 11334, "##謝": 19399, "##隅": 20440, "炸": 4156, "##琊": 17475, "##萊": 18901, "搡": 3019, "伦": 840, "##薔": 19010, "仙": 803, "舐": 5652, "棕": 3473, "跺": 6667, "david": 8776, "apk": 8543, "##ませんか": 9862, "ball": 10136, "##叫": 14430, "##徙": 15592, "忐": 2558, "繭": 5259, "##▋": 13602, "##譏": 19408, "揀": 2983, "##んて": 12098, "##迷": 19894, "ㄋ": 651, "##妻": 15045, "拳": 2891, "##瓏": 17533, "3mm": 12064, "##幅": 15445, "谄": 6445, "led": 8242, "魔": 7795, "##俯": 13992, "##棚": 16533, "##韜": 20560, "##雅": 20471, "越": 6632, "##逛": 19916, "諒": 6315, "膻": 5614, "椪": 3494, "綴": 5207, "##ming": 10693, "mmorpg": 13274, "##刈": 14205, "##hm": 13130, "桠": 3437, "溪": 3983, "##靚": 20532, "##醚": 20066, "##蹼": 19763, "378": 12770, "##瘦": 17664, "##驰": 20777, "##ily": 11779, "蓋": 5901, "滌": 3997, "##tail": 11662, "##募": 14304, "##销": 20275, "cg": 9715, "##tics": 11130, "##盡": 17731, "##禾": 17954, "之": 722, "嗽": 1644, "踐": 6673, "咁": 1464, "1935": 9523, "##times": 12288, "##臭": 18691, "怅": 2580, "##葯": 18932, "mkv": 11557, "start": 10906, "8k": 12689, "竊": 4988, "##氯": 16771, "313": 11622, "17life": 9091, "ト": 613, "##佝": 13926, "缤": 5364, "##彭": 15567, "##暗": 16323, "冏": 1087, "##铮": 20266, "艘": 5675, "ba": 10322, "##呢": 14507, "鋪": 7083, "780": 11493, "瞪": 4745, "##bar": 11031, "##柒": 16437, "氓": 3697, "嘶": 1674, "噙": 1685, "##捺": 16007, "cpi": 9511, "##叭": 14432, "sotheby": 12665, "girl": 9375, "##看": 17749, "审": 2144, "##萬": 18914, "巷": 2350, "2cm": 12988, "##72": 9492, "矩": 4762, "篇": 5063, "艺": 5686, "琢": 4423, "##婆": 15095, "鈎": 7044, "1903": 11295, "##悵": 15709, "##駄": 20742, "##ㄚ": 13715, "奂": 1934, "##イフ": 12692, "##算": 18107, "芾": 5716, "靈": 7470, "##疣": 17608, "dd": 10391, "##晶": 16310, "怙": 2588, "300": 8209, "##杈": 16385, "##闻": 20376, "讼": 6390, "##き": 8816, "盆": 4658, "▲topoct": 10135, "还": 6820, "##舅": 18700, "##虎": 19045, "##餮": 20689, "##琺": 17493, "窄": 4962, "advanced": 12370, "咯": 1492, "##浚": 16909, "271": 11206, "##拿": 15954, "傘": 990, "党": 1054, "##責": 19576, "纲": 5286, "结": 5310, "##hy": 9943, "##kv": 11145, "##县": 14401, "##掴": 16036, "##氐": 16752, "##畹": 17593, "靂": 7468, "##翻": 18493, "##額": 20597, "紮": 5167, "筒": 5030, "##屠": 15305, "##蕤": 18994, "蘋": 5981, "蜘": 6055, "措": 2974, "275": 10532, "##ager": 13281, "##笺": 18077, "##衿": 19201, "啕": 1560, "[unused16]": 16, "禾": 4897, "imf": 9971, "吸": 1429, "2200": 10191, "緬": 5228, "##樟": 16619, "溼": 3990, "##掲": 16034, "漢": 4031, "##眩": 17757, "##瘫": 17668, "max": 8621, "##臥": 18686, "20cm": 13309, "##请": 19492, "71": 8459, "##焱": 17253, "拴": 2892, "##绦": 18382, "##ly": 8436, "##します": 9294, "鏗": 7124, "netscape": 8691, "歧": 3637, "on": 8281, "##畀": 17573, "##魔": 20852, "爱": 4263, "##潔": 17106, "司": 1385, "##オ": 11238, "##綬": 18260, "纷": 5290, "韓": 7502, "寧": 2180, "##tional": 11852, "##ᆨ": 11953, "##盟": 17730, "鹃": 7898, "##ans": 11159, "篡": 5070, "##able": 9609, "闯": 7310, "##剉": 14237, "##汐": 16786, "##贞": 19622, "禅": 4883, "loft": 12751, "##纔": 18326, "##﹕": 21061, "截": 2779, "series": 10976, "##暮": 16329, "##蜇": 19104, "葱": 5876, "233": 9959, "sg": 12954, "##妈": 15025, "shift": 10866, "##蛳": 19096, "burberry": 11143, "icecat": 9336, "##挺": 15980, "##曬": 16344, "##ona": 11065, "##晕": 16295, "##願": 20601, "##外": 14969, "414": 12815, "##ましょう": 10759, "##繽": 18320, "##hip": 11489, "io": 10272, "##垩": 14863, "生": 4495, "僮": 1016, "啜": 1562, "囫": 1735, "鸯": 7891, "##ー": 8568, "##700": 11551, "锋": 7226, "five": 12706, "琦": 4425, "鳝": 7850, "##睾": 17785, "榫": 3530, "waze": 12836, "陡": 7367, "##荀": 18824, "##蘭": 19041, "pure": 13179, "818": 12265, "寅": 2165, "燼": 4253, "恺": 2628, "酉": 6977, "##秃": 17958, "宮": 2152, "##贰": 19639, "post": 8671, "506": 11608, "俯": 935, "tvg": 12547, "阎": 7330, "##瞄": 17787, "##翼": 18494, "##飄": 20654, "萄": 5843, "##ery": 11041, "##鵝": 20923, "##渔": 16991, "叼": 1388, "鲱": 7837, "jackson": 11945, "衄": 6118, "gpa": 12273, "##斃": 16208, "##搞": 16075, "兄": 1040, "坞": 1783, "艱": 5681, "錮": 7096, "ns": 10593, "颛": 7581, "（": 8020, "##櫛": 16661, "##決": 16805, "##粕": 18166, "ftp": 9195, "##肴": 18567, "洋": 3817, "晒": 3235, "桑": 3433, "##◤": 13618, "##俬": 13989, "381": 12185, "379": 12613, "##塾": 14917, "##狠": 17378, "##攒": 16161, "##哒": 14572, "т": 250, "巿": 2354, "鹵": 7918, "##岫": 15330, "抽": 2853, "##讷": 19443, "##px": 10605, "##码": 17829, "##麋": 20981, "##犷": 17365, "##釉": 20081, "##娼": 15092, "璟": 4469, "##в": 13403, "##窠": 18032, "旬": 3194, "78": 8409, "##駛": 20748, "##悬": 15704, "cookies": 8193, "app": 8172, "wind": 12302, "##纾": 18352, "sex": 11288, "胶": 5540, "##绝": 18375, "##舎": 18708, "price": 11597, "至": 5635, "噎": 1681, "跻": 6668, "##主": 13769, "敲": 3145, "##怎": 15639, "喆": 1588, "##况": 14162, "##nos": 12782, "##个": 13759, "boot": 13119, "##坠": 14842, "徉": 2524, "##越": 19689, "[unused37]": 37, "peter": 9323, "竺": 5002, "幾": 2407, "異": 4530, "252": 10968, "##喽": 14674, "##瓴": 17542, "amy": 11201, "เ": 284, "晞": 3243, "ｌ": 8062, "##檗": 16651, "##淖": 16961, "##纍": 18323, "奋": 1939, "锡": 7234, "堕": 1834, "搔": 3014, "1m": 12103, "##仞": 13862, "##咀": 14520, "咂": 1465, "##塌": 14904, "jp": 9348, "##遭": 19958, "cnn": 9206, "marriott": 10471, "緣": 5225, "裘": 6169, "鯛": 7808, "##ร": 13447, "##槎": 16599, "##α": 13380, "##碾": 17884, "##郑": 20005, "##实": 15198, "繡": 5255, "##＊": 21079, "jo": 13269, "##ub": 10544, "##oot": 13187, "風": 7591, "kymco": 11013, "##坡": 14843, "爭": 4261, "197": 10596, "耿": 5461, "lady": 8822, "##霭": 20518, "纯": 5283, "##ag": 10814, "##谁": 19500, "铵": 7212, "st": 8811, "vans": 10412, "##佃": 13908, "瘧": 4608, "##²": 11699, "##会": 13890, "##嫚": 15128, "##猥": 17398, "charles": 10403, "##毎": 16736, "##埔": 14872, "##阚": 20394, "##裤": 19232, "盖": 4667, "軸": 6729, "岛": 2270, "##table": 12477, "##埤": 14877, "##响": 14567, "570": 11594, "妘": 1974, "氈": 3693, "徵": 2547, "##撵": 16125, "##﹂": 21054, "most": 11344, "##福": 17943, "珂": 4392, "疆": 4538, "謂": 6333, "##ga": 8676, "inwedding": 12134, "##儋": 14083, "脏": 5552, "50g": 12233, "##施": 16234, "##邇": 19975, "琉": 4417, "闍": 7297, "詐": 6266, "##紉": 18206, "懑": 2749, "л": 243, "aaa": 10876, "##鹃": 20955, "##遞": 19951, "泡": 3796, "逛": 6859, "##筆": 18079, "##屐": 15300, "輝": 6740, "##闫": 20364, "##双": 14409, "##mit": 11104, "##锏": 20285, "急": 2593, "##鈺": 20109, "##唳": 14606, "##疱": 17614, "huang": 10788, "##侮": 13964, "##稽": 17999, "##鞏": 20549, "评": 6397, "棘": 3475, "##聂": 18519, "璃": 4461, "偿": 985, "##⋯": 13554, "到": 1168, "##誤": 19356, "塗": 1850, "connectivity": 8962, "##疝": 17605, "##涣": 16938, "5s": 9376, "廁": 2438, "弱": 2483, "錦": 7093, "久": 719, "##疊": 17597, "wing": 12349, "##秸": 17975, "ب": 262, "tee": 11330, "##衲": 19197, "##xi": 10201, "击": 1140, "##瑗": 17500, "270": 9282, "##钜": 20218, "剧": 1196, "像": 1008, "##钏": 20212, "##﹏": 21056, "雜": 7429, "baidu": 11118, "xperia": 9817, "##餌": 20679, "##憩": 15794, "##續": 18322, "##軟": 19784, "pixnet": 8191, "##er": 8196, "##诬": 19483, "莎": 5801, "##躯": 19775, "##阶": 20405, "纍": 5266, "articles": 12431, "犸": 4309, "##置": 18447, "泯": 3804, "##era": 10540, "2": 123, "册": 1085, "##㗎": 13727, "##云": 13813, "铠": 7200, "##ーション": 12301, "##眼": 17763, "##row": 10570, "仏": 795, "##彥": 15560, "跖": 6652, "##谢": 19525, "##錯": 20154, "ε": 214, "##馍": 20727, "罪": 5389, "##あ": 12146, "韧": 7505, "blogthis": 8265, "##祂": 17912, "##許": 19315, "##队": 20396, "驕": 7709, "##から": 8825, "##謬": 19402, "html": 8304, "##暉": 16318, "##list": 10142, "memory": 11910, "##100": 8823, "##帕": 15421, "##尚": 15270, "##暹": 16333, "愛": 2695, "##呐": 14500, "餮": 7632, "image": 9732, "d2": 11089, "##积": 17973, "73": 8454, "##栏": 16465, "##籼": 18160, "昱": 3222, "捩": 2944, "true": 10213, "##yi": 11017, "硫": 4800, "辩": 6796, "砰": 4786, "u11": 13235, "##wood": 9730, "##ο": 13392, "氢": 3705, "##舫": 18719, "##猴": 17404, "啻": 1581, "丟": 694, "傅": 987, "god": 11138, "##2000": 9842, "##dc": 12251, "拽": 2895, "伏": 826, "ᅢ": 305, "杏": 3331, "れる": 13148, "侍": 892, "ed2k": 10587, "312": 10578, "鸚": 7879, "焗": 4187, "肽": 5512, "騏": 7698, "##uc": 13139, "##∕": 13530, "##桌": 16487, "語": 6295, "##齋": 21026, "處": 5993, "##憶": 15798, "諫": 6322, "哐": 1513, "驛": 7712, "##sky": 11700, "##擎": 16140, "##煖": 17262, "##pa": 8797, "##蓋": 18958, "穀": 4944, "醮": 7017, "硝": 4799, "濤": 4092, "盏": 4662, "绕": 5312, "節": 5059, "針": 7036, "##卫": 14367, "1850": 12631, "lol": 8817, "day1": 11813, "##壕": 14944, "##耻": 18516, "##婴": 15105, "##廷": 15512, "蝦": 6076, "##琅": 17471, "▅": 451, "档": 3440, "儆": 1024, "敬": 3143, "##ard": 9345, "龛": 7989, "相": 4685, "##赶": 19685, "囉": 1717, "##►": 13612, "##鉗": 20116, "##480": 11581, "倌": 944, "##獲": 17420, "嗓": 1624, "malaysia": 10514, "锁": 7219, "##レ": 10416, "##凉": 14174, "##tr": 11309, "いて": 11232, "妣": 1978, "##杯": 16401, "##尬": 15274, "##橡": 16640, "##掷": 16037, "##敛": 16194, "娼": 2035, "log": 10510, "槛": 3546, "##ᆯ": 11596, "##kin": 12018, "##钳": 20236, "vive": 10167, "膺": 5613, "925": 10711, "211": 9395, "##紡": 18220, "##砲": 17844, "渚": 3937, "sbs": 9965, "title": 9956, "pad": 10257, "榴": 3534, "##boy": 11287, "kanye": 8598, "瞩": 4744, "败": 6571, "##pact": 12624, "faq1": 13006, "拂": 2855, "a6": 11716, "bird": 13164, "##′": 13504, "##おります": 9797, "##剌": 14240, "##戡": 15834, "－": 8025, "##毗": 16742, "##玖": 17433, "##褐": 19243, "##謙": 19397, "413": 12561, "##四": 14781, "way": 10590, "[unused18]": 18, "颖": 7577, "##ner": 8957, "もう": 12187, "##醺": 20077, "狀": 4311, "##缕": 18412, "##bank": 10980, "筍": 5026, "[unused51]": 51, "348": 12687, "雰": 7436, "主": 712, "😂": 8104, "##age": 9103, "箝": 5051, "##lk": 10758, "##'": 13323, "##韻": 20569, "##鼎": 21016, "前": 1184, "bag": 13214, "##痛": 17635, "［": 8045, "##ｉ": 12381, "##cms": 12353, "##岳": 15334, "##叽": 14446, "##烃": 17220, "187": 10058, "##医": 14335, "##北": 14323, "##瀑": 17162, "＇": 8019, "32": 8211, "嚇": 1702, "##蔬": 18979, "寫": 2183, "management": 10751, "##facebook": 12917, "露": 7463, "釁": 7022, "##其": 14128, "##売": 14956, "##蒨": 18947, "194": 10457, "text": 10539, "乌": 723, "##翩": 18488, "炳": 4154, "钮": 7175, "##車": 19779, "榱": 3533, "##ヽ": 13704, "##膊": 18657, "##甌": 17546, "睫": 4724, "##rder": 12658, "##后": 14457, "骷": 7759, "##绍": 18362, "##刮": 14224, "##着": 17765, "刑": 1152, "雅": 7414, "鬧": 7785, "##縫": 18296, "##view": 8892, "##也": 13795, "磯": 4838, "##輸": 19802, "##儂": 14079, "##扔": 15860, "##招": 15932, "##瞎": 17792, "冲": 1103, "##壘": 14945, "idc": 9617, "##涿": 16951, "钞": 7163, "衰": 6139, "##锂": 20277, "shop": 9926, "稜": 4929, "揹": 3004, "襄": 6198, "##佛": 13924, "219": 10453, "##豫": 19556, "note": 8698, "租": 4909, "鵝": 7866, "##ai": 8982, "##嵩": 15376, "##姬": 15067, "##似": 13906, "##纖": 18327, "motel": 11466, "暢": 3268, "防": 7344, "cat": 10165, "##受": 14415, "##put": 11300, "##综": 18398, "##瓤": 17538, "##right": 11264, "自": 5632, "##ings": 10334, "龊": 7980, "鬓": 7779, "##祷": 17933, "##见": 19281, "wwdc": 12848, "##詩": 19333, "##找": 15880, "##産": 17554, "竣": 4996, "##世": 13743, "##獷": 17422, "##赵": 19684, "︶": 7994, "##玑": 17432, "«": 178, "september": 10024, "##謂": 19390, "##陷": 20436, "汶": 3746, "贻": 6591, "##峪": 15346, "實": 2179, "商": 1555, "挙": 2906, "扶": 2820, "曉": 3280, "##汾": 16807, "##广": 15465, "嶼": 2328, "##珍": 17454, "迅": 6813, "巖": 2334, "trump": 9550, "##ak": 9896, "箸": 5058, "##蓮": 18966, "##孕": 15154, "##蝼": 19138, "##歎": 16683, "鲨": 7835, "##曙": 16339, "444": 12876, "抖": 2833, "##kins": 13084, "##委": 15056, "戮": 2781, "猎": 4333, "◆": 470, "##唐": 14595, "けた": 13182, "are": 8995, "##ーク": 12952, "屁": 2230, "works": 13112, "##奈": 14994, "##殷": 16725, "##tier": 11955, "##理": 17472, "##→": 10057, "杼": 3350, "herme": 8834, "##くれる": 11241, "h5": 9354, "##煌": 17259, "##☆": 8994, "##雷": 20497, "疲": 4558, "1933": 9657, "##ut": 9194, "##力": 14270, "##n": 8171, "302": 10563, "r1": 12026, "##孱": 15173, "姻": 2012, "57": 8272, "##nia": 12664, "岖": 2265, "##戛": 15832, "##趸": 19699, "##缚": 18416, "邨": 6931, "##抱": 15906, "病": 4567, "遍": 6881, "##れた": 10679, "pixnetfacebookyahoo": 12047, "##喷": 14670, "##徴": 15603, "蘸": 5985, "燉": 4237, "[unused57]": 57, "莫": 5811, "荀": 5767, "请": 6435, "摔": 3035, "abs": 8494, "rs": 10610, "##斓": 16215, "5v": 10965, "##鹑": 20963, "飾": 7617, "##廁": 15495, "##變": 19422, "餡": 7630, "only": 10110, "隧": 7400, "##✿": 13640, "##坯": 14848, "##砗": 17836, "##彻": 15572, "##腺": 18650, "##妃": 15021, "##锢": 20292, "聿": 5483, "謾": 6347, "##tes": 9420, "##寸": 15246, "forest": 10889, "斓": 3158, "孛": 2103, "进": 6822, "##gar": 11742, "nano": 13057, "##設": 19314, "洱": 3827, "せからこ": 12150, "冊": 1084, "##岸": 15336, "渙": 3936, "嶇": 2324, "めた": 12578, "##胯": 18592, "##產": 17553, "ス": 605, "总": 2600, "呂": 1436, "p10": 10405, "##簦": 18138, "##縄": 18291, "斯": 3172, "晷": 3254, "鼹": 7964, "##崑": 15359, "##標": 16617, "##牡": 17342, "淒": 3903, "##睛": 17771, "##磋": 17888, "##ｚ": 21100, "##忻": 15631, "##hz": 8686, "##泽": 16870, "request": 12931, "##胭": 18591, "##pt": 10789, "藐": 5967, "矍": 4754, "##操": 16139, "##演": 17085, "踞": 6675, "##竅": 18043, "talk2yam": 8767, "gogoro": 11225, "软": 6763, "遽": 6911, "1080p": 9237, "##腫": 18641, "五": 758, "##蹬": 19757, "##酗": 20041, "##um": 8545, "##锑": 20287, "襁": 6197, "↗": 373, "##銭": 20131, "68": 8360, "chris": 9582, "##冬": 14157, "##遜": 19950, "##ール": 9424, "##避": 19969, "スホンサーサイト": 12314, "##护": 15901, "##柩": 16447, "菏": 5827, "rm": 10620, "##裝": 19229, "瑣": 4451, "罢": 5387, "##矯": 17823, "脇": 5547, "腱": 5588, "颡": 7586, "ag": 9588, "野": 7029, "1868": 12590, "##」": 13655, "##網": 18263, "掳": 2978, "##芙": 18753, "##飢": 20666, "##猎": 17390, "##滨": 17069, "##寓": 15228, "161": 9608, "##iu": 12425, "##廊": 15500, "##变": 14416, "##という": 12383, "庭": 2431, "┊": 433, "茯": 5758, "##瀰": 17173, "##輩": 19799, "##淫": 16972, "##爻": 17328, "##竄": 18042, "悲": 2650, "##窿": 18041, "誕": 6293, "##ign": 11558, "ᄋ": 297, "透": 6851, "##民": 16753, "育": 5509, "涵": 3891, "##◢": 13617, "##俗": 13978, "##割": 14257, "##顺": 20613, "m8": 10914, "##洸": 16888, "嵋": 2315, "schemas": 11847, "##峋": 15338, "##骸": 20817, "##500": 9758, "碰": 4821, "##軒": 19783, "ic": 8577, "##隶": 20462, "##鹘": 20965, "卦": 1308, "鉉": 7057, "##蔭": 18980, "工": 2339, "##活": 16890, "##颈": 20625, "##煅": 17256, "鹫": 7914, "向": 1403, "restaurant": 10637, "安": 2128, "##侬": 13963, "舅": 5643, "##層": 15308, "##彬": 15566, "##о": 13413, "匀": 1258, "##抜": 15895, "##п": 13414, "14": 8122, "##狼": 17388, "gaga": 12762, "凤": 1128, "汁": 3723, "how": 9510, "芙": 5696, "∼": 389, "瑜": 4447, "##nder": 10493, "##↓": 12414, "##walk": 12621, "##ソ": 13687, "##授": 16013, "##痱": 17646, "##瘪": 17667, "##荷": 18849, "##困": 14794, "##饨": 20703, "##默": 21006, "ch": 9537, "##肯": 18564, "5d": 10406, "[unused45]": 45, "crystal": 12070, "##凍": 14177, "って": 9127, "##奢": 15008, "瀬": 4115, "仃": 786, "cctv": 10099, "##宋": 15186, "##挞": 15967, "刺": 1173, "羅": 5397, "##煸": 17274, "冬": 1100, "##馴": 20740, "他": 800, "紫": 5166, "##拱": 15947, "##come": 12097, "##墓": 14924, "##涩": 16943, "##鼓": 21018, "勛": 1244, "黃": 7941, "剿": 1204, "晚": 3241, "诶": 6434, "##确": 17859, "##go": 8591, "##账": 19629, "禺": 4894, "##扑": 15857, "##菁": 18878, "け": 544, "5t": 12204, "##总": 15657, "〈": 515, "287": 11525, "腴": 5590, "谕": 6460, "捲": 2947, "诈": 6400, "vga": 13140, "##呂": 14493, "##害": 15211, "##赌": 19660, "##镭": 20321, "##妘": 15031, "select": 10634, "ios10": 10671, "眶": 4702, "##规": 19283, "##ald": 13041, "裔": 6167, "##鹜": 20966, "訪": 6256, "##にお": 12337, "諭": 6323, "１０": 9198, "buy": 11166, "##垵": 14867, "##忏": 15614, "裡": 6174, "##ノ": 13692, "##噱": 14751, "］": 8047, "##浬": 16915, "##👍": 21124, "悅": 2633, "濮": 4095, "live": 8582, "gold": 10628, "へ": 565, "6991": 12918, "忏": 2557, "記": 6250, "hip": 11070, "sohu": 12610, "315": 9613, "聚": 5471, "韋": 7500, "佳": 881, "andy": 11036, "published": 12821, "電": 7442, "ddd": 13234, "##汎": 16785, "##漂": 17080, "##牧": 17345, "##33": 8921, "##罢": 18444, "##铤": 20261, "cho": 9829, "##啪": 14627, "雄": 7413, "node": 10320, "呵": 1457, "##噻": 14756, "奮": 1956, "##楫": 16567, "pet": 10495, "洽": 3835, "january": 9768, "碓": 4812, "权": 3326, "竇": 4987, "跎": 6650, "挫": 2919, "稣": 4933, "277": 11064, "##閉": 20330, "零": 7439, "il": 12197, "##玥": 17437, "©": 177, "##蕾": 19002, "##ション": 10798, "##赤": 19676, "##釜": 20092, "慷": 2724, "##dom": 11290, "##ition": 11418, "欣": 3615, "苜": 5730, "12306": 11914, "m2": 9567, "##豺": 19559, "1867": 13042, "##围": 14798, "##md": 10638, "##缝": 18418, "##蜻": 19121, "著": 5865, "tai": 13242, "ak": 12825, "萵": 5859, "00㎡1": 12411, "佝": 869, "##腔": 18636, "##衩": 19192, "kitty": 9431, "をお": 8651, "£": 173, "摈": 3032, "沫": 3773, "貶": 6524, "call": 9816, "470": 10658, "zen": 12923, "##殁": 16706, "漁": 4022, "そ": 550, "##疲": 17615, "##鬍": 20835, "辉": 6778, "338": 11929, "##line": 8762, "s5": 11161, "但": 852, "##谌": 19508, "pci": 10773, "##麴": 20990, "﹁": 7996, "##ang": 8688, "##饽": 20718, "龔": 7985, "##绞": 18376, "##蝗": 19129, "##貞": 19567, "##灌": 17175, "＋": 8023, "##镗": 20317, "##礙": 17901, "紗": 5156, "沧": 3771, "##ᵒ": 13494, "##73": 9148, "ivy": 12662, "common": 13050, "##‧": 13501, "笼": 5021, "姦": 2006, "芮": 5707, "薛": 5955, "##op": 9133, "application": 12339, "##帽": 15441, "##濫": 17150, "they": 12013, "襯": 6203, "闷": 7315, "▶": 466, "##域": 14875, "##机": 16379, "##苷": 18797, "啓": 1559, "146": 9630, "##樯": 16625, "##誡": 19354, "煸": 4217, "になる": 9322, "qe": 11534, "ᆼ": 328, "みの": 10354, "##絡": 18238, "##瓢": 17536, "督": 4719, "##奉": 14995, "##堙": 14892, "##宝": 15197, "弔": 2470, "歆": 3622, "霈": 7449, "##龍": 21040, "##雰": 20493, "##mg": 8882, "##駁": 20741, "谧": 6473, "##❤": 10269, "##辙": 19845, "炔": 4144, "烷": 4180, "##樾": 16632, "##遇": 19935, "##冷": 14164, "岗": 2266, "豐": 6493, "淩": 3913, "偶": 981, "槐": 3543, "さん": 10533, "##咛": 14538, "##摩": 16097, "##gy": 9765, "##条": 16397, "典": 1073, "##鏡": 20185, "%": 110, "##ᅯ": 13480, "绣": 5323, "##饪": 20704, "##孢": 15164, "##惯": 15736, "##煦": 17268, "##粿": 18183, "cj": 13202, "探": 2968, "wx17house": 9973, "ts": 9154, "##缨": 18423, "ⁱ": 352, "##窕": 18025, "##督": 17776, "mi": 10551, "限": 7361, "认": 6371, "薙": 5954, "®": 179, "##od": 9308, "##ten": 11598, "咔": 1474, "##缄": 18403, "[unused17]": 17, "投": 2832, "##钊": 20210, "##遶": 19963, "##铛": 20254, "丧": 700, "##値": 14014, "##梯": 16518, "──": 8297, "[unused3]": 3, "ll": 10856, "潍": 4047, "##颗": 20635, "[unused65]": 65, "咙": 1479, "衣": 6132, "赵": 6627, "盔": 4666, "##ken": 11285, "##縮": 18297, "##蚜": 19072, "队": 7339, "588": 12426, "##尼": 15282, "摆": 3030, "念": 2573, "oem": 9945, "##荞": 18836, "っ": 553, "拘": 2872, "398": 11425, "core": 9684, "lin": 9733, "##nan": 12457, "镛": 7261, "##ᄉ": 13462, "##铅": 20249, "##汴": 16802, "##県": 17750, "踮": 6680, "##蚂": 19067, "##喱": 14665, "揪": 2998, "##喏": 14651, "##囲": 14796, "##逃": 19902, "甾": 4515, "##業": 16568, "##style": 10001, "##哥": 14577, "董": 5869, "where": 11703, "救": 3131, "珪": 4407, "ｘ": 8074, "##ine": 8620, "276": 11173, "061": 11757, "抵": 2850, "bp": 12203, "##桔": 16492, "##讳": 19440, "##敬": 16200, "##販": 19573, "##逶": 19927, "##退": 19899, "谱": 6480, "##霹": 20522, "##从": 13851, "##娠": 15084, "50": 8145, "狮": 4326, "##搬": 16078, "漫": 4035, "蔓": 5913, "##南": 14355, "询": 6418, "槟": 3547, "蕩": 5939, "诸": 6436, "##怼": 15658, "##灯": 17185, "踊": 6670, "##к": 13409, "##咧": 14542, "##撅": 16106, "##芳": 18767, "##ーシてす": 12583, "銹": 7078, "粄": 5105, "##唏": 14594, "勋": 1237, "徴": 2546, "##執": 14879, "喊": 1591, "##嫑": 15124, "ｗ": 8073, "process": 12009, "##迂": 19868, "yes": 9719, "哪": 1525, "玲": 4386, "##敢": 16197, "轉": 6752, "##斌": 16211, "tv": 8395, "alexa": 11193, "##st": 8415, "##衍": 19179, "##賈": 19594, "飯": 7613, "##騎": 20754, "圓": 1755, "##纹": 18349, "##要": 19263, "栽": 3420, "蒹": 5893, "奢": 1951, "##憎": 15786, "##鑒": 20199, "##垮": 14866, "##議": 19416, "集": 7415, "幌": 2389, "虹": 6004, "##艾": 18744, "##邃": 19973, "辰": 6801, "帼": 2383, "戒": 2770, "##ace": 10026, "槲": 3550, "##mark": 9882, "ン": 642, "##刽": 14232, "妖": 1973, "##快": 15628, "##鏞": 20183, "瘁": 4596, "##觐": 19290, "届": 2237, "肮": 5506, "xd": 8444, "##point": 11112, "尝": 2214, "郷": 6961, "燃": 4234, "water": 11060, "##升": 14342, "##【": 13658, "剪": 1198, "##爽": 17329, "##铜": 20255, "yi": 11242, "鼓": 7961, "焘": 4188, "51": 8246, "勢": 1248, "##貪": 19574, "##牺": 17352, "364": 12673, "##属": 15304, "##繋": 18307, "##馆": 20724, "丑": 682, "忿": 2576, "toyota": 10632, "膿": 5617, "92": 8394, "濒": 4085, "bob": 10542, "忆": 2554, "028": 11842, "鸣": 7885, "养": 1075, "##ere": 12865, "##偃": 14025, "##壇": 14940, "箕": 5049, "##棺": 16543, "##肪": 18562, "##艋": 18731, "思": 2590, "##譽": 19420, "##贴": 19642, "##酉": 20034, "肾": 5513, "姒": 1997, "鹑": 7906, "##滿": 17078, "頭": 7531, "##獗": 17414, "##惬": 15733, "圃": 1747, "1943": 9540, "##way": 8824, "##淼": 16982, "##禹": 17950, "##鱼": 20881, "肤": 5502, "##ㄤ": 13720, "枝": 3363, "喜": 1599, "*": 115, "##昶": 16282, "簦": 5081, "志": 2562, "1880": 11348, "##a2": 12871, "骰": 7757, "兰": 1065, "##贾": 19650, "de": 8363, "滅": 3994, "##沓": 16818, "##謁": 19389, "てある": 12190, "##莫": 18868, "挑": 2904, "##lot": 10580, "##蝴": 19135, "##遑": 19942, "##6": 8158, "255": 9866, "仕": 799, "electronic": 9297, "##炎": 17199, "祀": 4853, "344": 12698, "缆": 5348, "##雪": 20491, "嘭": 1667, "##岙": 15325, "忑": 2559, "forum": 11730, "##醒": 20065, "諡": 6319, "滸": 4019, "绢": 5322, "懼": 2758, "粥": 5114, "質": 6549, "詆": 6265, "##zone": 11004, "##綵": 18265, "##my": 9009, "舜": 5658, "凿": 1142, "練": 5230, "燮": 4250, "##熟": 17282, "##粮": 18174, "##餡": 20687, "##佢": 13930, "##塬": 14914, "##猩": 17399, "术": 3318, "髂": 7762, "歪": 3639, "侥": 902, "说": 6432, "陟": 7366, "##med": 13089, "doi": 9962, "儼": 1035, "万": 674, "智": 3255, "獼": 4369, "[unused66]": 66, "粵": 5121, "about": 9053, "##子": 15151, "##拌": 15920, "##簫": 18141, "1952": 9241, "##÷": 13363, "奠": 1950, "憊": 2727, "joe": 9516, "☆": 481, "##ちは": 12951, "universal": 13229, "諱": 6325, "仔": 798, "contact": 11860, "贅": 6556, "醜": 7011, "插": 2991, "##dd": 9879, "##臘": 18683, "##ats": 10841, "##沌": 16814, "蜚": 6056, "亲": 779, "##ius": 10392, "岱": 2276, "##縛": 18293, "喫": 1604, "乡": 740, "棧": 3480, "瓦": 4482, "house": 8696, "摸": 3043, "##憊": 15784, "##菡": 18891, "##髋": 20821, "鸡": 7883, "##橢": 16641, "溅": 3972, "耨": 5454, "##ology": 10277, "##崖": 15361, "刎": 1151, "##β": 13381, "##雨": 20490, "227": 10543, "愫": 2701, "荥": 5785, "嚥": 1710, "梆": 3450, "麺": 7936, "##孵": 15175, "濯": 4096, "##暑": 16321, "##杆": 16384, "##锺": 20304, "##ool": 11627, "##ved": 11667, "匕": 1264, "low": 10611, "割": 1200, "##篠": 18126, "##cks": 11495, "≈": 391, "##掛": 16022, "team": 9597, "婕": 2041, "鉀": 7054, "##ック": 9244, "##ful": 10291, "690": 11960, "##pan": 12297, "##黯": 21013, "##芩": 18759, "惯": 2679, "namespace": 11076, "埔": 1815, "宇": 2126, "难": 7410, "龐": 7984, "old": 10404, "孔": 2096, "##狈": 17371, "##滴": 17074, "##ire": 9764, "贡": 6567, "邳": 6938, "ml": 10215, "##tment": 12986, "pepper": 11861, "##柵": 16453, "##攔": 16162, "##睽": 17784, "##у": 13418, "浚": 3852, "##ion": 8410, "ⓔ": 425, "鈀": 7041, "骠": 7750, "twitter": 8266, "寰": 2186, "978": 8837, "hard": 12442, "##н": 13412, "##ᅬ": 13477, "##梧": 16515, "##裟": 19230, "水": 3717, "茼": 5766, "蹋": 6691, "##ᄌ": 13464, "##浓": 16906, "square": 10897, "弦": 2478, "##狂": 17369, "蘑": 5982, "305": 10849, "##跡": 19714, "mike": 10021, "穂": 4945, "##华": 14347, "flash": 8427, "##丽": 13771, "##叙": 14417, "า": 283, "坟": 1784, "##遥": 19955, "##换": 15997, "##她": 15018, "nfc": 9298, "##鬃": 20833, "曹": 3293, "##烊": 17222, "##應": 15803, "##嵬": 15377, "##a1": 11414, "閔": 7280, "澄": 4067, "溥": 3981, "##dn": 10853, "##禿": 17955, "滾": 4020, "##瀘": 17164, "korea": 11984, "##蓓": 18960, "##れ": 9223, "補": 6171, "##閎": 20332, "鉴": 7063, "1909": 10943, "绑": 5308, "##鸵": 20950, "##匕": 14321, "葬": 5873, "##了": 13806, "##濺": 17155, "塔": 1849, "崑": 2302, "cook": 12703, "a8": 10790, "##孙": 15158, "##瘸": 17670, "##兽": 14134, "掙": 2964, "汲": 3744, "秸": 4918, "頌": 7520, "##燴": 17308, "牧": 4288, "﹞": 8010, "##氟": 16760, "##諄": 19368, "##粼": 18180, "##3d": 10696, "334": 12225, "##柬": 16448, "##賢": 19602, "砝": 4781, "##168": 11090, "##斋": 16210, "##酸": 20057, "竭": 4998, "##壁": 14937, "弩": 2480, "##駕": 20747, "锌": 7227, "##捱": 16003, "1993": 8516, "##che": 9763, "饲": 7654, "##羟": 18462, "紂": 5146, "狄": 4313, "蝶": 6079, "##朧": 16368, "##噹": 14755, "##016": 8705, "[unused53]": 53, "那": 6929, "##mbps": 12399, "##批": 15878, "##key": 9938, "##沭": 16831, "##漳": 17097, "コメント": 12167, "荣": 5783, "vision": 10762, "##崩": 15366, "##稣": 17990, "使": 886, "##鄔": 20024, "妤": 1979, "逃": 6845, "anna": 9779, "腩": 5583, "旌": 3182, "憑": 2731, "飪": 7612, "╚": 440, "动": 1220, "cfa": 9984, "##矜": 17815, "##邛": 19983, "##钦": 20228, "顆": 7538, "##屎": 15298, "##瘀": 17652, "mind": 12573, "##陋": 20415, "ゅ": 574, "辦": 6794, "##倶": 14021, "saas": 10362, "雕": 7425, "fc2": 11362, "渐": 3933, "暑": 3264, "2002": 8301, "342": 12362, "巻": 2351, "澜": 4073, "##铸": 20271, "腭": 5585, "##鳩": 20910, "##read": 10314, "○○": 9423, "408": 12189, "dv": 12372, "詔": 6267, "##㊣": 13726, "##唬": 14601, "##闾": 20378, "##綿": 18271, "##ments": 10444, "##吉": 14452, "揽": 3005, "８": 8036, "limited": 10424, "very": 11785, "##湫": 17021, "##般": 18720, "冇": 1081, "##奕": 15002, "诅": 6398, "##偈": 14027, "##抢": 15900, "new": 8343, "##熔": 17280, "##藻": 19033, "##ッセーシを": 11231, "##躲": 19776, "喝": 1600, "彭": 2510, "##癌": 17674, "座": 2429, "锏": 7228, "##弦": 15535, "##top": 10075, "exo": 11184, "##＠": 21088, "画": 4514, "##ir": 8977, "##ゝ": 13679, "##捋": 15987, "##薪": 19016, "##亂": 13805, "december": 9871, "晦": 3246, "##坷": 14851, "覬": 6218, "##31": 8805, "##此": 16691, "##硐": 17853, "蕤": 5937, "king": 9382, "strong": 11732, "蠶": 6114, "##嚕": 14764, "钎": 7154, "i5": 10013, "##疗": 17602, "##癢": 17680, "緒": 5219, "fun": 9575, "呀": 1435, "##採": 16024, "2a": 11646, "鱸": 7823, "##臾": 18697, "##溯": 17042, "##钛": 20217, "##馨": 20735, "佤": 875, "white": 9790, "售": 1545, "##山": 15312, "繁": 5246, "russell": 11514, "##崁": 15354, "##lla": 9585, "##麾": 20997, "愚": 2694, "domain": 12168, "仲": 815, "蘼": 5986, "##椰": 16553, "##簡": 18137, "000": 8241, "掏": 2959, "##泌": 16846, "##nk": 9705, "谤": 6470, "##饍": 20696, "##nie": 10519, "崙": 2306, "様": 3545, "##on": 8224, "狒": 4317, "redis": 12599, "烘": 4167, "λ": 219, "##rr": 12579, "脚": 5558, "趟": 6636, "##顷": 20611, "wto": 10045, "##に": 8294, "哼": 1530, "##巢": 15395, "166": 9771, "##泪": 16858, "##父": 17323, "癜": 4620, "佶": 883, "蛹": 6040, "賑": 6539, "##孜": 15161, "scp": 10547, "閾": 7292, "##朽": 16380, "##sia": 12557, "##羯": 18470, "##83": 9559, "彼": 2516, "##·": 13356, "朋": 3301, "淙": 3906, "201": 9250, "##店": 15478, "恼": 2630, "##异": 15517, "##汞": 16792, "##煎": 17260, "##洵": 16886, "##贊": 19615, "##荟": 18837, "縈": 5235, "usa": 11583, "樓": 3559, "9": 130, "许": 6387, "bwl": 9681, "816": 10937, "##交": 13826, "##杵": 16405, "##赭": 19680, "##鄂": 20021, "馍": 7670, "##f": 8189, "##诩": 19481, "##：": 21084, "##痍": 17629, "shadow": 12378, "棗": 3474, "玠": 4379, "##溧": 17039, "##诀": 19451, "なお": 12663, "##妣": 15035, "咽": 1498, "##倔": 14006, "宥": 2148, "砲": 4787, "洛": 3821, "##蹦": 19755, "絨": 5184, "##满": 17064, "##钾": 20242, "##ールを": 10994, "##琰": 17487, "##tags": 11313, "粳": 5120, "##農": 19860, "娶": 2034, "##骊": 20796, "##am": 8608, "ユ": 632, "##袂": 19203, "##迤": 19885, "鑫": 7144, "燴": 4251, "##睫": 17781, "##˙": 13377, "化": 1265, "※": 349, "##充": 14098, "##茹": 18822, "##阮": 20399, "觞": 6236, "##搡": 16076, "##道": 19944, "##covery": 12548, "##舍": 18707, "##憔": 15789, "##轶": 19824, "##盏": 17719, "かお": 11252, "醫": 7015, "了": 749, "侵": 909, "min": 9573, "##ule": 10724, "##雎": 20478, "淞": 3908, "##幢": 15451, "謹": 6346, "ᅳ": 318, "軼": 6730, "郑": 6948, "荠": 5781, "賣": 6546, "氲": 3716, "##颠": 20642, "襬": 6202, "##ei": 9384, "～": 8080, "##hop": 11975, "##薅": 19004, "岀": 2258, "##袁": 19202, "帝": 2370, "##劳": 14284, "☺": 484, "304": 9627, "##徉": 15581, "b2": 9668, "##}": 13346, "##技": 15882, "##摄": 16086, "##運": 19937, "##￣": 21122, "##幕": 15448, "1938": 9429, "##哗": 14574, "##奏": 14998, "##邱": 19994, "259": 10987, "##腋": 18630, "##翅": 18477, "##袒": 19209, "##暧": 16326, "##弓": 15526, "藜": 5970, "##ao": 8731, "琊": 4418, "##stle": 13026, "866": 11029, "##へ": 11320, "##冗": 14147, "internet": 8484, "瘫": 4611, "##宕": 15190, "奐": 1942, "換": 2994, "##族": 16241, "##枱": 16428, "##邺": 19999, "##襁": 19254, "##ost": 12085, "挎": 2903, "##紮": 18224, "##补": 19190, "[unused64]": 64, "##rf": 10531, "##pro": 10538, "壢": 1891, "##醜": 20068, "##蛀": 19081, "いてす": 12837, "##晏": 16291, "##聊": 18521, "﹕": 8004, "烙": 4168, "账": 6572, "欽": 3620, "rdquo": 11071, "##挛": 15965, "##负": 19623, "su": 11541, "##綽": 18269, "js": 9016, "##ㄞ": 13717, "##邀": 19970, "萱": 5858, "##剐": 14243, "##拡": 15935, "##棠": 16535, "╯": 445, "臀": 5618, "償": 1030, "閹": 7290, "##123": 9807, "亩": 774, "##ə": 13368, "##贻": 19648, "##瀬": 17172, "藥": 5973, "资": 6598, "坵": 1793, "131": 9403, "##間": 20336, "街": 6125, "雎": 7421, "慶": 2723, "pc": 8295, "##囱": 14795, "伙": 832, "##钿": 20243, "[unused7]": 7, "阙": 7336, "お": 540, "羡": 5406, "185": 9560, "##fig": 11392, "瓷": 4487, "鵲": 7870, "億": 1023, "诛": 6412, "leonardo": 8579, "##獾": 17427, "責": 6519, "##2017": 8367, "＝": 8041, "##研": 17834, "琵": 4434, "##潦": 17114, "##状": 17364, "##asia": 11276, "##遒": 19943, "##缓": 18410, "##蜚": 19113, "局": 2229, "##闯": 20367, "##贲": 19641, "##wa": 9161, "##～7": 12681, "##搁": 16064, "zol": 12182, "##撒": 16111, "##呻": 14517, "昵": 3224, "github": 10575, "du": 10173, "hdmi": 9578, "explorer": 10630, "##餉": 20677, "##蛟": 19091, "誠": 6296, "##tf": 11359, "##ts": 8723, "f": 148, "驮": 7718, "goris": 9188, "＞": 8042, "##凈": 14173, "冨": 1098, "丹": 710, "裕": 6168, "re": 8847, "##滝": 17061, "##xure": 12622, "##″": 13505, "##tro": 11343, "##感": 15754, "喋": 1592, "##执": 15866, "##纷": 18347, "##胱": 18594, "衾": 6143, "##泊": 16845, "##°c": 9953, "瓏": 4476, "emba": 10360, "朦": 3310, "饅": 7635, "##骁": 20789, "敷": 3148, "锵": 7245, "##疑": 17599, "goo": 9271, "151": 9564, "##まて": 10737, "##っています": 11822, "cx": 11154, "##嗶": 14699, "##因": 14785, "##醃": 20059, "##眷": 17760, "##幸": 15458, "##织": 18359, "##編": 18283, "哔": 1516, "##僧": 14071, "湫": 3964, "磷": 4840, "尺": 2223, "##褲": 19251, "清": 3926, "～10": 11115, "target": 11926, "011": 12603, "##驷": 20782, "没": 3766, "4g": 8340, "晔": 3237, "##红": 18330, "##猾": 17407, "##鳍": 20903, "##庚": 15480, "16": 8121, "銳": 7076, "##员": 14504, "##庭": 15488, "##or": 8372, "##馁": 20721, "護": 6362, "##津": 16880, "埼": 1826, "notes": 13165, "经": 5307, "##ㄒ": 13714, "alt": 9721, "##吴": 14483, "昇": 3205, "焙": 4189, "[unused42]": 42, "##k": 8197, "##bby": 12832, "##円": 14137, "##答": 18088, "##驕": 20766, "畸": 4535, "##▌": 13603, "銭": 7074, "##妞": 15034, "wang": 9660, "##擦": 16149, "##繩": 18313, "饥": 7645, "##岀": 15315, "芦": 5701, "##鑣": 20200, "##啾": 14640, "専": 2197, "##饲": 20711, "傳": 1001, "##潰": 17118, "##鍰": 20163, "譙": 6353, "language": 8348, "##阐": 20388, "睞": 4716, "奖": 1946, "祗": 4863, "腥": 5581, "##啡": 14622, "阶": 7348, "##va": 8786, "##蜀": 19100, "##魁": 20845, "樁": 3555, "1000": 8212, "郤": 6953, "rate": 12597, "##lux": 12700, "##丶": 13765, "##凑": 14179, "##泳": 16864, "への": 11021, "##贏": 19617, "##茏": 18807, "b2b": 9493, "##逾": 19931, "##橋": 16635, "##悪": 15703, "##藝": 19028, "舖": 5655, "##睑": 17770, "##ov": 11689, "##哑": 14571, "##沧": 16828, "##仗": 13858, "莒": 5802, "撕": 3056, "鼠": 7962, "##焚": 17247, "唉": 1536, "powered": 10103, "jerry": 13111, "##障": 20454, "崁": 2297, "む": 569, "行": 6121, "##rmin": 13116, "##統": 18243, "union": 12161, "##ils": 12223, "##揩": 16054, "现": 4385, "兮": 1064, "謠": 6343, "eba": 11129, "##舾": 18729, "##源": 17032, "随": 7390, "nikkie": 13303, "亦": 771, "##rner": 11012, "##red": 9749, "虏": 5989, "祸": 4877, "##mma": 13292, "##ng": 8291, "ж": 239, "##筍": 18083, "##蛎": 19086, "##蠅": 19161, "##丐": 13738, "论": 6389, "cam": 12722, "桥": 3441, "ь": 258, "毛": 3688, "##咄": 14523, "##舞": 18716, "##￥": 21123, "顶": 7553, "2017": 8109, "##磬": 17894, "蒂": 5881, "aa": 9563, "also": 12216, "##帅": 15415, "##瀕": 17163, "##貫": 19575, "##54": 9488, "##hat": 12063, "缸": 5374, "##宰": 15210, "瞅": 4731, "pony": 8365, "00㎡": 9506, "##啉": 14613, "##际": 20411, "##崂": 15355, "##彤": 15559, "σ": 226, "210": 9083, "4a": 10660, "##題": 20596, "嗶": 1642, "##龐": 21041, "##瞅": 17788, "巫": 2344, "堆": 1831, "靄": 7469, "かあります": 11163, "##廿": 15514, "##公": 14119, "亢": 768, "##沦": 16827, "誨": 6302, "衆": 6120, "##鏘": 20182, "波": 3797, "##棗": 16531, "##是": 16278, "station": 10459, "##棟": 16534, "##辛": 19846, "##詡": 19329, "1929": 9792, "6gb": 12324, "獺": 4367, "##儕": 14085, "諺": 6329, "##now": 11371, "冒": 1088, "餉": 7620, "缚": 5359, "操": 3082, "##壟": 14947, "##姍": 15051, "##姜": 15059, "##待": 15578, "##摻": 16103, "##胡": 18586, "邝": 6927, "##⑧": 13563, "##蒡": 18946, "##険": 20438, "桦": 3442, "##飪": 20669, "エ": 595, "##献": 17403, "mt": 10376, "##﹞": 21067, "##绽": 18399, "僕": 1010, "以": 809, "颶": 7595, "##橹": 16644, "绵": 5336, "##込": 19864, "伞": 835, "##钮": 20232, "→": 370, "癮": 4628, "◎": 473, "疇": 4539, "螞": 6085, "狙": 4319, "##圾": 14826, "##亮": 13835, "##巻": 15408, "##ite": 9538, "罚": 5385, "酚": 6985, "轎": 6754, "誌": 6290, "叡": 1364, "ラ": 635, "02": 8150, "抄": 2826, "##ions": 11137, "##hia": 12615, "4": 125, "立": 4989, "访": 6393, "##⑶": 13568, "##丢": 13753, "##鲍": 20885, "嗡": 1631, "淚": 3907, "岬": 2274, "供": 897, "糗": 5132, "##捏": 15991, "にこ": 13059, "想": 2682, "985": 11263, "镍": 7255, "禽": 4896, "h1": 12333, "dell": 11516, "the": 8174, "##很": 15580, "掐": 2960, "赠": 6615, "貌": 6505, "钗": 7158, "wifi": 8306, "月": 3299, "岘": 2267, "##瘧": 17665, "##晰": 16308, "rar": 12773, "dl": 11961, "##爸": 17325, "his": 10163, "256": 9745, "蚁": 6009, "##烬": 17234, "##疵": 17617, "嘖": 1654, "matt": 12042, "繋": 5250, "pdf": 8496, "##拧": 15940, "##tag": 11882, "黛": 7950, "talk": 9533, "enter": 11086, "##下": 13735, "##なりました": 12533, "##靳": 20542, "##無": 17249, "保": 924, "敵": 3147, "遶": 6906, "⑥": 410, "##考": 18497, "1988": 8571, "多": 1914, "私": 4900, "仁": 785, "界": 4518, "fairmont": 12208, "##888": 10053, "table": 10809, "##van": 13045, "##大": 14977, "##腻": 18651, "莪": 5810, "##眦": 17755, "腦": 5582, "簸": 5086, "1885": 13124, "qi": 11566, "##哨": 14580, "##皋": 17699, "##壯": 14954, "##烁": 17218, "こ": 545, "##np": 12798, "##牟": 17340, "貸": 6526, "bi": 11055, "醴": 7019, "##甩": 17558, "##禱": 17949, "杖": 3335, "##钝": 20219, "喲": 1609, "##隙": 20452, "剛": 1190, "##には": 10410, "詮": 6280, "##啞": 14620, "##ess": 9685, "##場": 14899, "##枰": 16427, "##揚": 16050, "ᄐ": 301, "层": 2231, "##疯": 17613, "矜": 4758, "芳": 5710, "ᄀ": 288, "##踪": 19736, "巴": 2349, "##偉": 14028, "sat": 8536, "下": 678, "20": 8113, "##ream": 11714, "50000": 11750, "##₁": 13514, "3～4": 12907, "164": 10048, "##島": 15351, "##悩": 15702, "##氖": 16756, "沪": 3772, "##涇": 16923, "庚": 2423, "廓": 2444, "欺": 3619, "隸": 7406, "##cent": 11270, "##over": 11436, "##リア": 11989, "##虜": 19053, "##材": 16389, "389": 12512, "辱": 6802, "缰": 5371, "##捡": 15996, "##参": 14403, "##櫚": 16660, "夕": 1911, "彷": 2513, "矗": 4755, "1951": 9387, "##婉": 15096, "##峇": 15337, "码": 4772, "##7": 8161, "##燙": 17300, "##防": 20401, "慰": 2720, "横": 3566, "萘": 5849, "！": 8013, "佑": 859, "##uard": 12589, "##ry": 8449, "糙": 5133, "摳": 3042, "弧": 2479, "焊": 4184, "愧": 2700, "肿": 5514, "##腆": 18627, "孽": 2121, "##勤": 14306, "为": 711, "##و": 13439, "##寬": 15241, "##導": 15263, "荟": 5780, "##攫": 16173, "##骧": 20811, "##噗": 14741, "cst": 12945, "##观": 19282, "ｕ": 8071, "##峒": 15339, "##gg": 9949, "巢": 2338, "498": 12544, "286": 11367, "##last": 13177, "##峻": 15352, "##帖": 15422, "##飼": 20672, "##琼": 17494, "需": 7444, "##球": 17470, "##ｐ": 10748, "6a": 11692, "春": 3217, "##赎": 19661, "求": 3724, "舾": 5672, "##直": 17741, "##範": 18118, "##の": 8227, "star": 9012, "##喇": 14646, "852": 11845, "斷": 3174, "##痠": 17637, "##壢": 14948, "##兼": 14133, "e1": 12298, "##验": 20798, "##坐": 14834, "捺": 2950, "榖": 3526, "##健": 14035, "##株": 16472, "##care": 11014, "##ers": 8755, "##積": 18005, "鋸": 7085, "##皱": 17708, "##lish": 13128, "汞": 3735, "##侨": 13962, "瑩": 4453, "fi": 8533, "铸": 7214, "將": 2200, "災": 4134, "##め": 10063, "周": 1453, "趺": 6643, "pro": 8376, "##硒": 17854, "酸": 7000, "lisa": 10032, "##者": 18499, "##縣": 18295, "ˊ": 203, "jennifer": 12652, "籃": 5091, "才": 2798, "≫": 399, "##苒": 18781, "₂": 356, "汨": 3740, "admin": 8843, "##吃": 14448, "##虱": 19060, "歙": 3629, "喟": 1601, "岸": 2279, "癢": 4623, "礦": 4846, "##谯": 19536, "觉": 6230, "叙": 1360, "##衢": 19188, "##鎊": 20168, "##淦": 16968, "##鏤": 20187, "##鮨": 20858, "##tm": 10774, "##薊": 19007, "隘": 7394, "ig": 8288, "##鐸": 20194, "##跄": 19703, "贵": 6586, "軀": 6721, "鳖": 7848, "##凇": 14172, "绮": 5331, "322": 11965, "##絳": 18245, "窃": 4961, "##距": 19712, "蹇": 6687, "##聾": 18539, "伉": 822, "兵": 1070, "vm": 13094, "##涠": 16936, "##疾": 17622, "##餵": 20690, "##耸": 18515, "343": 12186, "##菖": 18886, "gui": 12295, "##廠": 15506, "##霑": 20512, "笠": 5015, "##冒": 14145, "##秦": 17969, "##佬": 13935, "c": 145, "洪": 3825, "sea": 11007, "##櫃": 16659, "##ens": 11550, "螺": 6090, "瞓": 4738, "##娆": 15075, "##指": 15957, "詼": 6286, "恣": 2613, "绳": 5334, "##侧": 13961, "蜕": 6053,
[...]
